/* Copyright 2023 The TensorFlow Authors. All Rights Reserved.

Licensed under the Apache License, Version 2.0 (the "License");
you may not use this file except in compliance with the License.
You may obtain a copy of the License at

    http://www.apache.org/licenses/LICENSE-2.0

Unless required by applicable law or agreed to in writing, software
distributed under the License is distributed on an "AS IS" BASIS,
WITHOUT WARRANTIES OR CONDITIONS OF ANY KIND, either express or implied.
See the License for the specific language governing permissions and
limitations under the License.
==============================================================================*/

// Automatically created from a TensorFlow Lite flatbuffer using the command:
// xxd -i model.tflite > model.cc

// This is a standard TensorFlow Lite model file that has been converted into a
// C data array, so it can be easily compiled into a binary for devices that
// don't have a file system.

// See train/README.md for a full description of the creation process.

#include "model.h"

// Keep aligned to 16 bytes for CMSIS
alignas(16) const unsigned char g_model[] = {
  0x20, 0x00, 0x00, 0x00, 0x54, 0x46, 0x4c, 0x33, 0x00, 0x00, 0x00, 0x00,
  0x14, 0x00, 0x20, 0x00, 0x1c, 0x00, 0x18, 0x00, 0x14, 0x00, 0x10, 0x00,
  0x0c, 0x00, 0x00, 0x00, 0x08, 0x00, 0x04, 0x00, 0x14, 0x00, 0x00, 0x00,
  0x1c, 0x00, 0x00, 0x00, 0x84, 0x00, 0x00, 0x00, 0xdc, 0x00, 0x00, 0x00,
  0x10, 0x1d, 0x00, 0x00, 0x20, 0x1d, 0x00, 0x00, 0x84, 0x26, 0x00, 0x00,
  0x03, 0x00, 0x00, 0x00, 0x01, 0x00, 0x00, 0x00, 0x04, 0x00, 0x00, 0x00,
  0x9a, 0xe2, 0xff, 0xff, 0x0c, 0x00, 0x00, 0x00, 0x1c, 0x00, 0x00, 0x00,
  0x38, 0x00, 0x00, 0x00, 0x0f, 0x00, 0x00, 0x00, 0x73, 0x65, 0x72, 0x76,
  0x69, 0x6e, 0x67, 0x5f, 0x64, 0x65, 0x66, 0x61, 0x75, 0x6c, 0x74, 0x00,
  0x01, 0x00, 0x00, 0x00, 0x04, 0x00, 0x00, 0x00, 0x98, 0xff, 0xff, 0xff,
  0x0e, 0x00, 0x00, 0x00, 0x04, 0x00, 0x00, 0x00, 0x07, 0x00, 0x00, 0x00,
  0x64, 0x65, 0x6e, 0x73, 0x65, 0x5f, 0x33, 0x00, 0x01, 0x00, 0x00, 0x00,
  0x04, 0x00, 0x00, 0x00, 0x72, 0xe3, 0xff, 0xff, 0x04, 0x00, 0x00, 0x00,
  0x0b, 0x00, 0x00, 0x00, 0x64, 0x65, 0x6e, 0x73, 0x65, 0x5f, 0x69, 0x6e,
  0x70, 0x75, 0x74, 0x00, 0x02, 0x00, 0x00, 0x00, 0x34, 0x00, 0x00, 0x00,
  0x04, 0x00, 0x00, 0x00, 0xdc, 0xff, 0xff, 0xff, 0x11, 0x00, 0x00, 0x00,
  0x04, 0x00, 0x00, 0x00, 0x13, 0x00, 0x00, 0x00, 0x43, 0x4f, 0x4e, 0x56,
  0x45, 0x52, 0x53, 0x49, 0x4f, 0x4e, 0x5f, 0x4d, 0x45, 0x54, 0x41, 0x44,
  0x41, 0x54, 0x41, 0x00, 0x08, 0x00, 0x0c, 0x00, 0x08, 0x00, 0x04, 0x00,
  0x08, 0x00, 0x00, 0x00, 0x10, 0x00, 0x00, 0x00, 0x04, 0x00, 0x00, 0x00,
  0x13, 0x00, 0x00, 0x00, 0x6d, 0x69, 0x6e, 0x5f, 0x72, 0x75, 0x6e, 0x74,
  0x69, 0x6d, 0x65, 0x5f, 0x76, 0x65, 0x72, 0x73, 0x69, 0x6f, 0x6e, 0x00,
  0x12, 0x00, 0x00, 0x00, 0x30, 0x1c, 0x00, 0x00, 0x28, 0x1c, 0x00, 0x00,
  0x14, 0x1c, 0x00, 0x00, 0xdc, 0x1b, 0x00, 0x00, 0x4c, 0x1b, 0x00, 0x00,
  0x3c, 0x13, 0x00, 0x00, 0x2c, 0x12, 0x00, 0x00, 0x1c, 0x02, 0x00, 0x00,
  0x0c, 0x01, 0x00, 0x00, 0xbc, 0x00, 0x00, 0x00, 0xb4, 0x00, 0x00, 0x00,
  0xac, 0x00, 0x00, 0x00, 0xa4, 0x00, 0x00, 0x00, 0x9c, 0x00, 0x00, 0x00,
  0x94, 0x00, 0x00, 0x00, 0x8c, 0x00, 0x00, 0x00, 0x6c, 0x00, 0x00, 0x00,
  0x04, 0x00, 0x00, 0x00, 0x32, 0xe4, 0xff, 0xff, 0x04, 0x00, 0x00, 0x00,
  0x58, 0x00, 0x00, 0x00, 0x0c, 0x00, 0x00, 0x00, 0x08, 0x00, 0x0e, 0x00,
  0x08, 0x00, 0x04, 0x00, 0x08, 0x00, 0x00, 0x00, 0x10, 0x00, 0x00, 0x00,
  0x28, 0x00, 0x00, 0x00, 0x00, 0x00, 0x06, 0x00, 0x08, 0x00, 0x04, 0x00,
  0x06, 0x00, 0x00, 0x00, 0x04, 0x00, 0x00, 0x00, 0x01, 0x00, 0x00, 0x00,
  0xeb, 0x03, 0x00, 0x00, 0x00, 0x00, 0x0a, 0x00, 0x10, 0x00, 0x0c, 0x00,
  0x08, 0x00, 0x04, 0x00, 0x0a, 0x00, 0x00, 0x00, 0x02, 0x00, 0x00, 0x00,
  0x02, 0x00, 0x00, 0x00, 0x04, 0x00, 0x00, 0x00, 0x06, 0x00, 0x00, 0x00,
  0x32, 0x2e, 0x31, 0x35, 0x2e, 0x31, 0x00, 0x00, 0x96, 0xe4, 0xff, 0xff,
  0x04, 0x00, 0x00, 0x00, 0x10, 0x00, 0x00, 0x00, 0x31, 0x2e, 0x31, 0x34,
  0x2e, 0x30, 0x00, 0x00, 0x00, 0x00, 0x00, 0x00, 0x00, 0x00, 0x00, 0x00,
  0x50, 0xdb, 0xff, 0xff, 0x54, 0xdb, 0xff, 0xff, 0x58, 0xdb, 0xff, 0xff,
  0x5c, 0xdb, 0xff, 0xff, 0x60, 0xdb, 0xff, 0xff, 0x64, 0xdb, 0xff, 0xff,
  0xca, 0xe4, 0xff, 0xff, 0x04, 0x00, 0x00, 0x00, 0x40, 0x00, 0x00, 0x00,
  0xed, 0xbc, 0xce, 0x3a, 0x27, 0xf4, 0x01, 0xd2, 0xe0, 0xc9, 0xcf, 0x07,
  0xd4, 0x01, 0xd8, 0x06, 0xcb, 0xef, 0x0b, 0xd3, 0xd1, 0xec, 0xec, 0x2d,
  0xed, 0xe6, 0x22, 0x07, 0xd9, 0xd5, 0x3c, 0x00, 0x0c, 0x00, 0xe6, 0xde,
  0xcd, 0xf3, 0x2b, 0x00, 0xe9, 0x81, 0xca, 0xe7, 0xed, 0x15, 0xdf, 0xf8,
  0x14, 0xe5, 0x0d, 0xd8, 0xec, 0xd3, 0xfb, 0xef, 0x04, 0x3a, 0xf4, 0xc7,
  0xd2, 0xde, 0xe4, 0x05, 0x16, 0xe5, 0xff, 0xff, 0x04, 0x00, 0x00, 0x00,
  0x00, 0x01, 0x00, 0x00, 0x00, 0x00, 0x00, 0x00, 0xb7, 0x08, 0x00, 0x00,
  0x00, 0x00, 0x00, 0x00, 0x0a, 0xef, 0xff, 0xff, 0xc0, 0xee, 0xff, 0xff,
  0xa7, 0x00, 0x00, 0x00, 0x1b, 0xff, 0xff, 0xff, 0x00, 0x00, 0x00, 0x00,
  0x00, 0x00, 0x00, 0x00, 0x09, 0x0a, 0x00, 0x00, 0x00, 0x00, 0x00, 0x00,
  0x67, 0xf8, 0xff, 0xff, 0x23, 0x0a, 0x00, 0x00, 0xcd, 0xfe, 0xff, 0xff,
  0x00, 0x00, 0x00, 0x00, 0xb6, 0xf9, 0xff, 0xff, 0x00, 0x00, 0x00, 0x00,
  0x00, 0x00, 0x00, 0x00, 0xd3, 0xff, 0xff, 0xff, 0x00, 0x00, 0x00, 0x00,
  0x00, 0x00, 0x00, 0x00, 0x00, 0x00, 0x00, 0x00, 0x00, 0x00, 0x00, 0x00,
  0xd6, 0xe9, 0xff, 0xff, 0x00, 0x00, 0x00, 0x00, 0x00, 0x00, 0x00, 0x00,
  0x6f, 0xec, 0xff, 0xff, 0x9d, 0xf8, 0xff, 0xff, 0x00, 0x00, 0x00, 0x00,
  0x00, 0x00, 0x00, 0x00, 0x00, 0xe8, 0xff, 0xff, 0xe8, 0xff, 0xff, 0xff,
  0xf3, 0xf3, 0xff, 0xff, 0xbd, 0xff, 0xff, 0xff, 0x00, 0x00, 0x00, 0x00,
  0x00, 0x00, 0x00, 0x00, 0x00, 0x00, 0x00, 0x00, 0x00, 0x00, 0x00, 0x00,
  0x1c, 0xed, 0xff, 0xff, 0xe8, 0xff, 0xff, 0xff, 0x00, 0x00, 0x00, 0x00,
  0x29, 0x06, 0x00, 0x00, 0x00, 0x00, 0x00, 0x00, 0x00, 0x00, 0x00, 0x00,
  0x00, 0x00, 0x00, 0x00, 0x02, 0xeb, 0xff, 0xff, 0x00, 0x00, 0x00, 0x00,
  0x00, 0x00, 0x00, 0x00, 0xec, 0xeb, 0xff, 0xff, 0x00, 0x00, 0x00, 0x00,
  0xfd, 0xf2, 0xff, 0xff, 0x00, 0x00, 0x00, 0x00, 0xbb, 0x0b, 0x00, 0x00,
  0x00, 0x00, 0x00, 0x00, 0x00, 0x00, 0x00, 0x00, 0x00, 0x00, 0x00, 0x00,
  0xab, 0xfb, 0xff, 0xff, 0x5e, 0xef, 0xff, 0xff, 0x00, 0x00, 0x00, 0x00,
  0x00, 0x00, 0x00, 0x00, 0x00, 0x00, 0x00, 0x00, 0x00, 0x00, 0x00, 0x00,
  0x00, 0x00, 0x00, 0x00, 0x06, 0xfa, 0xff, 0xff, 0x22, 0xe6, 0xff, 0xff,
  0x04, 0x00, 0x00, 0x00, 0x00, 0x10, 0x00, 0x00, 0x03, 0xe1, 0x08, 0xd2,
  0xf4, 0x04, 0x0a, 0x0f, 0x0c, 0xc1, 0xea, 0xfa, 0xd0, 0xfe, 0xfa, 0x0b,
  0xef, 0x07, 0x01, 0x03, 0x04, 0x10, 0xe5, 0xc6, 0xf3, 0xf3, 0xdd, 0xd5,
  0xf6, 0x03, 0xe4, 0x00, 0xdf, 0xe7, 0x11, 0xf8, 0x08, 0x19, 0xe6, 0xe8,
  0xe8, 0xf7, 0x13, 0x19, 0x09, 0xd9, 0xef, 0xf7, 0xe2, 0xf3, 0xeb, 0xfb,
  0x0b, 0xfe, 0xf4, 0xeb, 0xec, 0xea, 0xed, 0xf3, 0xf3, 0xf8, 0x0d, 0xeb,
  0xf1, 0xfa, 0x1b, 0xec, 0x0e, 0xec, 0xe3, 0x15, 0x0c, 0x09, 0x16, 0x12,
  0xfc, 0xd6, 0x17, 0xe8, 0x16, 0x08, 0xc5, 0x08, 0x02, 0x1b, 0x0b, 0xf3,
  0x17, 0x13, 0x01, 0x0f, 0xf5, 0x13, 0xec, 0xe6, 0xeb, 0x05, 0xee, 0x11,
  0xee, 0xf0, 0xfd, 0xef, 0xf8, 0x11, 0x00, 0x18, 0x13, 0x02, 0x05, 0xf8,
  0x00, 0x10, 0x0f, 0xf0, 0xf4, 0xf4, 0xe6, 0x13, 0xf2, 0xfc, 0x10, 0xf7,
  0xfe, 0x04, 0xea, 0xf8, 0x15, 0x02, 0x03, 0xea, 0xe8, 0xf6, 0x17, 0xf4,
  0x0e, 0x04, 0x0a, 0xfa, 0xf1, 0x0a, 0x08, 0x16, 0x11, 0xe5, 0x0a, 0x0f,
  0xfa, 0xf2, 0x19, 0x12, 0x16, 0xe9, 0x07, 0x10, 0xfe, 0xe7, 0xf3, 0xed,
  0xf5, 0xf5, 0xf4, 0x16, 0x18, 0x0d, 0x04, 0xfb, 0x07, 0x09, 0x11, 0xf5,
  0x1a, 0x03, 0x02, 0xe9, 0x0d, 0xe9, 0xf1, 0xed, 0x01, 0x0b, 0x01, 0x15,
  0xf3, 0x0f, 0x00, 0xfa, 0x03, 0xed, 0x05, 0xed, 0xee, 0xc9, 0xf5, 0xcf,
  0xda, 0x0e, 0x08, 0x0e, 0xea, 0xc2, 0x11, 0xde, 0xdb, 0xf5, 0xfe, 0xf0,
  0x10, 0xff, 0xe4, 0xeb, 0x19, 0x19, 0xf0, 0xd5, 0x10, 0x09, 0xca, 0xfc,
  0xf2, 0x15, 0xaa, 0xed, 0xe3, 0x0f, 0xf9, 0x04, 0x1b, 0xfd, 0xc7, 0xfb,
  0xff, 0xed, 0xe6, 0xf0, 0xe8, 0xde, 0xe8, 0x18, 0xfa, 0xf8, 0xef, 0x1a,
  0x30, 0xf2, 0x0a, 0x16, 0x05, 0xcf, 0xe5, 0x18, 0x07, 0x14, 0xf8, 0x0c,
  0x19, 0xe9, 0xf6, 0x19, 0xea, 0x14, 0x0b, 0xea, 0xed, 0x04, 0xee, 0x05,
  0x07, 0xed, 0xee, 0x03, 0x0c, 0x05, 0xfd, 0x1b, 0x0a, 0x1b, 0x1b, 0x01,
  0x0d, 0x07, 0x08, 0x15, 0x09, 0x1a, 0xe4, 0x13, 0x0a, 0x10, 0xfa, 0xf5,
  0xfb, 0xef, 0xf0, 0x15, 0x05, 0xed, 0x16, 0x12, 0x10, 0x00, 0xea, 0x1a,
  0x08, 0x0e, 0xf8, 0x17, 0xe7, 0xff, 0xe8, 0xe5, 0xfa, 0xf7, 0x0a, 0xf0,
  0x02, 0xeb, 0xee, 0xf5, 0x12, 0x02, 0xf5, 0xe2, 0xe3, 0xf3, 0x16, 0x06,
  0xeb, 0x07, 0xed, 0xe6, 0xee, 0x09, 0xf8, 0x0d, 0x08, 0xf0, 0x0d, 0x19,
  0x0f, 0x06, 0x1b, 0xf1, 0x1b, 0xee, 0xed, 0xe9, 0x01, 0x05, 0xef, 0x1b,
  0xf7, 0xe4, 0x1a, 0xf7, 0x0f, 0xfd, 0x02, 0x12, 0x07, 0xf0, 0xfa, 0x01,
  0xf5, 0xf0, 0xf7, 0xea, 0xf1, 0xfc, 0xf2, 0xf0, 0xf5, 0x17, 0x01, 0xea,
  0xf2, 0x11, 0x18, 0xf6, 0xec, 0x0f, 0xfe, 0x0a, 0x11, 0xfe, 0x14, 0xec,
  0xff, 0xff, 0xe7, 0x0d, 0xf8, 0xf7, 0x13, 0xfa, 0xf4, 0x14, 0x12, 0xe6,
  0x13, 0x1a, 0xef, 0x05, 0x06, 0xfa, 0x0d, 0xfa, 0xf3, 0xfa, 0xe6, 0x0b,
  0x0f, 0x00, 0x18, 0x19, 0xf4, 0xf2, 0x0d, 0x17, 0xf4, 0x15, 0xf1, 0xe8,
  0x03, 0x11, 0xfa, 0x0e, 0x0f, 0xed, 0x15, 0x0d, 0x15, 0xe6, 0x0b, 0xe7,
  0x01, 0x11, 0xf8, 0x0d, 0x05, 0x13, 0x18, 0x0f, 0x0f, 0xf0, 0xf4, 0xfa,
  0xee, 0x09, 0xf0, 0xfa, 0xf1, 0xdf, 0xec, 0x0c, 0xf8, 0x09, 0x17, 0xec,
  0xf8, 0x11, 0x10, 0x0a, 0x15, 0xec, 0x08, 0xf4, 0xf0, 0x09, 0xe8, 0xd8,
  0xe5, 0xf8, 0xdb, 0xfd, 0xe5, 0x0d, 0xe0, 0x0e, 0xdc, 0x06, 0xe7, 0x15,
  0x03, 0x0f, 0xfa, 0x10, 0x17, 0x02, 0x16, 0xf1, 0xee, 0xfd, 0x0e, 0xfb,
  0xe6, 0xfd, 0xd9, 0xf7, 0x01, 0x0d, 0xfc, 0x0b, 0x0e, 0x10, 0x03, 0x09,
  0xfb, 0x06, 0x05, 0xf0, 0x07, 0xe8, 0x19, 0xf8, 0xe9, 0x17, 0xf6, 0xea,
  0xe7, 0xe7, 0xf8, 0x0c, 0xfd, 0x0d, 0x18, 0xf1, 0x16, 0x14, 0xf1, 0xf1,
  0xf7, 0xf6, 0xfc, 0x15, 0xe8, 0x0b, 0xfc, 0x06, 0xfa, 0xec, 0x00, 0xf9,
  0x0a, 0xf4, 0x1a, 0xf3, 0xf4, 0xef, 0x11, 0xf6, 0x09, 0x04, 0x08, 0xfd,
  0xe7, 0xf8, 0xfc, 0x1b, 0x01, 0x19, 0x01, 0x14, 0xf4, 0x0c, 0xf6, 0xeb,
  0x01, 0xf3, 0xf7, 0x0f, 0x10, 0x10, 0x05, 0x15, 0x0a, 0x09, 0xfe, 0x15,
  0x08, 0x05, 0x0f, 0xe6, 0xfc, 0xe8, 0xfd, 0xeb, 0xfa, 0xfa, 0xf0, 0xe9,
  0xee, 0x16, 0xf4, 0x07, 0x0c, 0xf0, 0xe8, 0xf7, 0xf4, 0x0b, 0xfa, 0xf0,
  0x19, 0x1b, 0xf6, 0xf8, 0xf6, 0xf8, 0x07, 0x0d, 0xf3, 0x08, 0xfb, 0x1a,
  0xf0, 0x0e, 0xec, 0x09, 0x06, 0xee, 0xf7, 0xe7, 0x0b, 0xf2, 0xfb, 0x13,
  0xea, 0xf7, 0x03, 0x00, 0x1a, 0xea, 0x05, 0xf8, 0xfd, 0xe5, 0xed, 0xe6,
  0x11, 0xfb, 0xe7, 0xd4, 0xce, 0xf3, 0xfb, 0xfc, 0x0e, 0xdf, 0x07, 0xdf,
  0xdf, 0xfb, 0xfe, 0xe5, 0xec, 0x1a, 0xf7, 0xfc, 0xe6, 0x04, 0x03, 0xf9,
  0xf6, 0x0f, 0xe1, 0xec, 0x0b, 0x09, 0xb2, 0xf0, 0x00, 0xf8, 0xf9, 0xf2,
  0xfa, 0xf4, 0xf1, 0x13, 0xf5, 0xf4, 0xfa, 0xff, 0x02, 0xef, 0x0a, 0xf9,
  0x0e, 0xe6, 0xf3, 0xe6, 0x10, 0x0c, 0xe9, 0xed, 0xf5, 0xb7, 0xef, 0x17,
  0xfc, 0xf0, 0x15, 0x12, 0xf8, 0xed, 0x14, 0xfe, 0xf9, 0xf3, 0x07, 0x0d,
  0x1b, 0xe4, 0x00, 0xf3, 0xe2, 0xf1, 0x00, 0x0d, 0xf0, 0xf9, 0xe6, 0xfb,
  0x12, 0x07, 0x19, 0xfe, 0xf1, 0x12, 0x04, 0xf0, 0xf6, 0xfc, 0xff, 0xe5,
  0xeb, 0x0c, 0xf5, 0x02, 0x18, 0x14, 0xff, 0xe5, 0xe8, 0x17, 0x11, 0xf6,
  0xfe, 0xed, 0xed, 0x00, 0x05, 0xe9, 0x10, 0x1a, 0xe5, 0x11, 0x12, 0xff,
  0xec, 0x10, 0x11, 0x09, 0x10, 0x0a, 0x0c, 0xf3, 0x04, 0x03, 0xea, 0xfe,
  0xfe, 0x0b, 0xf7, 0x18, 0xeb, 0x09, 0xea, 0xf6, 0x0b, 0xfe, 0xfe, 0xf1,
  0xf3, 0xff, 0xe4, 0xf3, 0x11, 0xf4, 0x0a, 0xf6, 0xf8, 0x11, 0xec, 0xd6,
  0xfc, 0xff, 0x06, 0xf3, 0xfa, 0xfe, 0x00, 0x13, 0xf0, 0x18, 0xe4, 0xf4,
  0x19, 0xf7, 0x19, 0x09, 0x05, 0xdd, 0xed, 0x10, 0xf3, 0xfe, 0x05, 0xf4,
  0xfb, 0xf7, 0xfe, 0x0a, 0xe6, 0xf3, 0x11, 0x00, 0x13, 0x15, 0x0c, 0xeb,
  0x15, 0x08, 0x11, 0xda, 0x09, 0xfe, 0xdb, 0xea, 0x11, 0x0d, 0x06, 0x05,
  0xfe, 0x02, 0x08, 0x08, 0xf2, 0x07, 0xfd, 0xe8, 0xfa, 0xeb, 0x14, 0xfa,
  0xfd, 0x16, 0xe0, 0xdd, 0x06, 0xfb, 0xf3, 0xe5, 0xe1, 0xe3, 0xe8, 0xf2,
  0x1b, 0x00, 0xd7, 0x08, 0x19, 0xfa, 0x11, 0xf4, 0x01, 0x07, 0xe8, 0xfc,
  0xec, 0x05, 0xe6, 0xed, 0x02, 0xea, 0xf5, 0xfb, 0x04, 0xe0, 0x06, 0xec,
  0x0a, 0xe8, 0xfb, 0xe3, 0xf7, 0xea, 0xfe, 0x02, 0xeb, 0xfe, 0xed, 0xfa,
  0x04, 0xfd, 0xee, 0x1b, 0x11, 0xec, 0xf5, 0xe6, 0x16, 0x16, 0xfe, 0xe9,
  0xfb, 0x0c, 0x08, 0xf6, 0x13, 0x01, 0x18, 0x19, 0x02, 0xf2, 0x0c, 0x00,
  0xef, 0x05, 0x11, 0xf5, 0xf9, 0x05, 0xe8, 0x04, 0xf8, 0xfd, 0xfd, 0xe4,
  0x0c, 0x18, 0x1b, 0xe5, 0x1b, 0xf3, 0xee, 0x12, 0xfb, 0x17, 0xef, 0x19,
  0x0c, 0xf7, 0x11, 0x0c, 0xf3, 0x1a, 0x18, 0x10, 0x09, 0xe9, 0xfd, 0xb8,
  0xd8, 0xfe, 0xf8, 0x00, 0x01, 0xdb, 0x0e, 0xd8, 0xc2, 0x06, 0xff, 0xed,
  0x0b, 0x11, 0x12, 0x00, 0x05, 0xe7, 0x04, 0xf0, 0x00, 0xf2, 0xe4, 0xfd,
  0xe7, 0xef, 0xaf, 0xf4, 0xf2, 0xf9, 0xf6, 0xfe, 0x11, 0x12, 0xcb, 0xf4,
  0xef, 0xd1, 0x0e, 0x1a, 0xe8, 0xf3, 0x1a, 0xe8, 0x10, 0x00, 0xe2, 0xeb,
  0x14, 0x05, 0xed, 0x08, 0x02, 0xae, 0xee, 0x19, 0xfa, 0x0f, 0x13, 0x00,
  0xe8, 0xd8, 0x02, 0x01, 0xf5, 0xfc, 0xf1, 0x13, 0xee, 0xe0, 0xfd, 0xe8,
  0xdc, 0x0b, 0x06, 0xde, 0x0c, 0x1a, 0xe9, 0xed, 0x05, 0x14, 0x02, 0xd1,
  0xe6, 0x13, 0xdc, 0xd0, 0xfa, 0x06, 0xce, 0x1a, 0xd3, 0x14, 0x08, 0x13,
  0xec, 0x01, 0xf8, 0xe8, 0x0d, 0xc7, 0x0b, 0x0b, 0x07, 0xf8, 0xf9, 0x12,
  0xe5, 0x0b, 0xe9, 0x04, 0x23, 0xf6, 0x00, 0xf6, 0xe0, 0xd8, 0x02, 0xeb,
  0x0c, 0xf9, 0xf9, 0xf7, 0x00, 0x02, 0x07, 0xdf, 0xff, 0x08, 0xdd, 0xf4,
  0xf3, 0x25, 0xfc, 0x07, 0x2c, 0xd5, 0xfb, 0xf7, 0x18, 0xed, 0x81, 0xf3,
  0x05, 0xfa, 0xfd, 0x0f, 0x04, 0xfc, 0xea, 0x03, 0xe9, 0x0f, 0xf9, 0x08,
  0x1a, 0x12, 0x0b, 0xec, 0xed, 0x0e, 0x05, 0x04, 0x0d, 0x02, 0x16, 0xf2,
  0x16, 0x0f, 0xf6, 0xf7, 0x04, 0xec, 0x08, 0xfd, 0x30, 0xe6, 0x01, 0xf0,
  0xf4, 0xdd, 0xff, 0xf9, 0xf9, 0xea, 0x15, 0xed, 0x14, 0x02, 0xe7, 0x01,
  0x0c, 0xce, 0x03, 0xfb, 0x12, 0x00, 0x0a, 0xf4, 0xe0, 0xee, 0x01, 0xd3,
  0x17, 0x14, 0xfb, 0xe7, 0x14, 0x01, 0xed, 0xf6, 0x05, 0xf3, 0xe9, 0xfb,
  0xfb, 0xf7, 0x05, 0xfe, 0xd3, 0x11, 0xfa, 0xfe, 0xee, 0xe5, 0x06, 0x14,
  0xfe, 0xff, 0xf4, 0xeb, 0x12, 0xf5, 0xe6, 0x15, 0xf6, 0xef, 0xcb, 0x1a,
  0x10, 0xff, 0xff, 0xe5, 0xed, 0xe6, 0x1a, 0x10, 0x09, 0xfd, 0x02, 0xf3,
  0xfa, 0x2d, 0x0e, 0xeb, 0x0f, 0xf2, 0xdf, 0x05, 0xfe, 0x12, 0xe5, 0xea,
  0x13, 0xb9, 0x1b, 0x17, 0x0b, 0xe8, 0x81, 0x14, 0xf2, 0x16, 0x02, 0x05,
  0x07, 0xea, 0x15, 0xf8, 0x00, 0x17, 0xe0, 0xf5, 0xf9, 0xf5, 0xeb, 0x0d,
  0x0e, 0x0f, 0xf6, 0xe9, 0x15, 0x12, 0xf9, 0xfe, 0x19, 0xe4, 0xe8, 0xe9,
  0x0f, 0x02, 0x06, 0x18, 0x1d, 0xff, 0x0d, 0xec, 0x03, 0x0e, 0xe9, 0xf8,
  0x10, 0x13, 0x08, 0x0c, 0x10, 0x01, 0x0d, 0xed, 0x00, 0x02, 0xfc, 0x04,
  0x10, 0x02, 0x04, 0x06, 0xe9, 0xe5, 0xfd, 0x07, 0xf0, 0xe7, 0xfc, 0xf7,
  0xf1, 0xfd, 0xf5, 0xf9, 0xfd, 0xf9, 0xea, 0x02, 0xe8, 0x14, 0xfd, 0xf6,
  0xd8, 0xee, 0xfb, 0x19, 0x0f, 0xf7, 0xe0, 0x14, 0xe7, 0xf7, 0xee, 0xec,
  0xf6, 0xd8, 0xe9, 0x17, 0xe3, 0x18, 0xf9, 0x1b, 0x0b, 0x01, 0xfb, 0x04,
  0x07, 0xd3, 0xfb, 0x13, 0x10, 0x11, 0xe8, 0xf6, 0x1b, 0xfc, 0x0a, 0xf8,
  0x10, 0xfd, 0xf0, 0xf7, 0x0a, 0x23, 0x0b, 0xf7, 0x08, 0xc6, 0x15, 0x06,
  0x11, 0xf1, 0x8f, 0x02, 0x05, 0xed, 0x05, 0xe5, 0x01, 0x1a, 0x08, 0x19,
  0xec, 0xf3, 0xfb, 0x16, 0xf3, 0xe0, 0xf9, 0x11, 0x1a, 0xee, 0x0b, 0xee,
  0xee, 0x0f, 0xf7, 0x07, 0xe8, 0xeb, 0x04, 0xfd, 0xe1, 0x19, 0x13, 0xff,
  0x20, 0xf2, 0x02, 0xee, 0x0a, 0xf2, 0x06, 0x06, 0xf9, 0x1b, 0xfb, 0xec,
  0xf9, 0xfe, 0x02, 0xec, 0xee, 0x03, 0xf6, 0xf3, 0x16, 0xf6, 0xe9, 0xf4,
  0xf0, 0xed, 0xe6, 0x0e, 0x1a, 0x0c, 0xea, 0xec, 0x1b, 0x0e, 0x1b, 0x15,
  0xf1, 0x0b, 0xf0, 0x07, 0x03, 0x0b, 0xff, 0x04, 0xfd, 0xec, 0xe5, 0x10,
  0x13, 0x05, 0xfc, 0x15, 0xe5, 0xf4, 0xf8, 0xe5, 0xee, 0xeb, 0x00, 0xf9,
  0x09, 0x03, 0x15, 0x13, 0xea, 0xfe, 0xed, 0x12, 0xfa, 0xec, 0x19, 0x17,
  0xf5, 0xf6, 0xeb, 0xe8, 0x13, 0xfd, 0x0e, 0x18, 0x05, 0xed, 0xed, 0xea,
  0xf2, 0xed, 0x0a, 0xf3, 0xf6, 0x06, 0x16, 0x00, 0x16, 0x0f, 0xf1, 0xf5,
  0x10, 0xfc, 0x1b, 0x2a, 0xf4, 0xf6, 0x21, 0x20, 0xe6, 0x10, 0x22, 0xed,
  0x19, 0xfa, 0xe7, 0x12, 0x04, 0xf4, 0x18, 0x09, 0x0a, 0x00, 0xfd, 0xef,
  0x19, 0x05, 0x16, 0xed, 0x11, 0xf4, 0x01, 0xfa, 0xcc, 0x03, 0xfe, 0xfd,
  0x09, 0x21, 0x0f, 0x08, 0x02, 0x1b, 0x0d, 0x06, 0xfe, 0xe9, 0x11, 0x02,
  0x0a, 0xf5, 0x0d, 0xee, 0x0e, 0x08, 0x0d, 0x06, 0x00, 0xf3, 0xf6, 0xf8,
  0xf0, 0x03, 0xf8, 0xf9, 0xf8, 0x15, 0xe7, 0x04, 0x13, 0xf0, 0x09, 0x17,
  0xe5, 0xe9, 0x03, 0x15, 0x02, 0x09, 0x0e, 0xeb, 0x09, 0xf3, 0x0a, 0x19,
  0x00, 0xf0, 0xfc, 0x13, 0xf5, 0xfa, 0x02, 0x0b, 0xeb, 0x18, 0xe8, 0xec,
  0x06, 0xe6, 0xfb, 0xe9, 0x02, 0xf5, 0xeb, 0x07, 0xf3, 0xef, 0x0b, 0x0a,
  0xfc, 0x08, 0xf1, 0xfc, 0xea, 0x09, 0xe3, 0x00, 0x0b, 0xf7, 0xe7, 0xf3,
  0xfc, 0xf1, 0x08, 0x1a, 0xfc, 0x17, 0xe7, 0x0d, 0x03, 0xea, 0xfe, 0x01,
  0x13, 0xf1, 0x02, 0xf8, 0x02, 0xe9, 0xec, 0xf4, 0xff, 0x03, 0xe5, 0xf1,
  0xfe, 0x05, 0x15, 0x0f, 0x15, 0xe4, 0xe8, 0xe8, 0x0b, 0xeb, 0xe5, 0x08,
  0x1b, 0x1b, 0x0f, 0x06, 0x00, 0x16, 0xee, 0x12, 0x16, 0x02, 0xe5, 0x0f,
  0x11, 0x09, 0x17, 0x01, 0xe8, 0x12, 0x0f, 0xed, 0x00, 0xff, 0x04, 0xec,
  0x08, 0xe4, 0xf8, 0x12, 0x15, 0x0d, 0xfb, 0x03, 0xea, 0x03, 0x08, 0xfd,
  0x0e, 0xed, 0xe8, 0xeb, 0x13, 0x0e, 0x15, 0xfe, 0xed, 0xf1, 0x14, 0xe9,
  0xe4, 0xe6, 0xf7, 0xec, 0x03, 0xed, 0xe3, 0xf2, 0xe8, 0xe6, 0x12, 0xf1,
  0x0f, 0xe9, 0x1b, 0x10, 0x0b, 0xfb, 0xf2, 0xfa, 0xf0, 0xec, 0x01, 0xf3,
  0xe4, 0xf6, 0xe8, 0xf5, 0xe8, 0xea, 0xf6, 0x07, 0xea, 0xf4, 0xf9, 0x09,
  0xee, 0xf0, 0x17, 0x19, 0x13, 0xf6, 0xfe, 0xf3, 0xeb, 0x15, 0xf0, 0x13,
  0x1b, 0x0a, 0xfe, 0xe5, 0x0d, 0x1a, 0xed, 0x19, 0xf9, 0xf1, 0xfa, 0x07,
  0xf4, 0x09, 0xf7, 0xe6, 0xfd, 0xea, 0x06, 0x16, 0x03, 0xe6, 0xf0, 0xf9,
  0x16, 0xe8, 0xfd, 0x18, 0xe8, 0x17, 0x08, 0x04, 0xe6, 0x01, 0x18, 0x19,
  0xec, 0xf5, 0xfc, 0x0e, 0xf7, 0xfe, 0x13, 0x12, 0x0a, 0x00, 0x04, 0xf9,
  0x0f, 0x04, 0x1b, 0xf1, 0x01, 0x0c, 0xe8, 0xe6, 0xf2, 0xec, 0x0a, 0x03,
  0xe8, 0xe4, 0xec, 0x10, 0x18, 0x1b, 0xf2, 0xee, 0x0a, 0x11, 0x07, 0xf6,
  0x0b, 0xed, 0x10, 0xff, 0x12, 0x09, 0x00, 0x05, 0x1a, 0xea, 0x1b, 0xf3,
  0xe8, 0xe6, 0x13, 0x0f, 0x00, 0xef, 0xf3, 0xec, 0x0a, 0xe7, 0x14, 0x12,
  0x09, 0xfa, 0xe9, 0x0d, 0x0f, 0x0a, 0xed, 0xf0, 0x07, 0x0d, 0xfa, 0x1a,
  0x16, 0xed, 0x06, 0xf0, 0xf3, 0x00, 0x0a, 0xf0, 0x00, 0xfd, 0xf0, 0x1b,
  0xf9, 0xe4, 0x17, 0x15, 0xf1, 0xcd, 0xfa, 0x01, 0x11, 0x04, 0xb8, 0xfc,
  0x15, 0x19, 0xff, 0xee, 0xff, 0x15, 0xfc, 0x00, 0xfa, 0xf9, 0xf1, 0xef,
  0x10, 0xf9, 0x13, 0xf1, 0xf7, 0x0c, 0x17, 0x17, 0xfa, 0x16, 0xe6, 0x08,
  0x01, 0xf8, 0x14, 0xea, 0xe7, 0xfe, 0xf0, 0xff, 0x16, 0xfe, 0xd3, 0xe9,
  0xf9, 0x16, 0xfd, 0x11, 0x08, 0xf0, 0x02, 0xeb, 0xea, 0x0d, 0x00, 0xf9,
  0xfa, 0xf3, 0x06, 0xe9, 0x16, 0xf5, 0xef, 0x01, 0x01, 0x17, 0xeb, 0xdc,
  0xe5, 0xfd, 0xf2, 0xf3, 0x0e, 0x12, 0x08, 0xd9, 0x1a, 0xf1, 0xf4, 0xfd,
  0xed, 0x1a, 0xe6, 0x1a, 0xec, 0x02, 0xfc, 0x0b, 0x0e, 0x06, 0x0c, 0xec,
  0x17, 0xdf, 0xfe, 0x19, 0x19, 0xeb, 0xe5, 0x15, 0xe4, 0x1b, 0x01, 0x00,
  0x08, 0xf6, 0x10, 0x02, 0x05, 0xe8, 0x15, 0xe6, 0x0d, 0xf3, 0x0d, 0x0b,
  0xfb, 0xe3, 0x11, 0x11, 0xf3, 0x10, 0xf3, 0xf7, 0xff, 0xef, 0xec, 0x0e,
  0x11, 0x07, 0x16, 0x15, 0xec, 0x0d, 0x0f, 0x0d, 0x19, 0x12, 0xfa, 0x08,
  0xe5, 0x18, 0xf9, 0x1a, 0xe8, 0xee, 0xf7, 0xf8, 0x07, 0xed, 0x19, 0xf2,
  0xf3, 0x18, 0x0a, 0xe7, 0xf2, 0xee, 0xfc, 0xfb, 0x0b, 0xeb, 0x03, 0xeb,
  0xf3, 0x1a, 0xfc, 0xf7, 0xe6, 0xf0, 0xe3, 0x18, 0xf5, 0xe4, 0xf1, 0xf1,
  0xfc, 0x0f, 0x18, 0x0c, 0x14, 0xfd, 0x08, 0x04, 0xea, 0x01, 0xe7, 0x1a,
  0xeb, 0x14, 0x03, 0x1b, 0xe3, 0xf9, 0x02, 0x14, 0x07, 0x04, 0x0f, 0x0a,
  0x16, 0x15, 0xe8, 0x16, 0x01, 0x16, 0xe7, 0xfd, 0x0c, 0x09, 0xef, 0xec,
  0x12, 0x06, 0x06, 0x00, 0xe5, 0xf1, 0xfd, 0x08, 0xe7, 0xff, 0xf7, 0x00,
  0xf7, 0xff, 0xe5, 0x07, 0x1b, 0xf7, 0x03, 0xf9, 0x0c, 0x00, 0xe6, 0xee,
  0x04, 0xf1, 0x05, 0x1b, 0x02, 0xe5, 0x06, 0x02, 0x1a, 0xeb, 0xf5, 0xfa,
  0xf4, 0xfd, 0xe9, 0x01, 0x03, 0xe6, 0x1b, 0xfe, 0xf0, 0x0b, 0x06, 0xf4,
  0x17, 0x19, 0xfc, 0x12, 0x02, 0xf1, 0x02, 0xeb, 0xed, 0xf5, 0xf5, 0x05,
  0xe8, 0xec, 0xfa, 0x18, 0xfb, 0x14, 0xe8, 0x08, 0x19, 0x0d, 0x06, 0x18,
  0xef, 0xf6, 0xf2, 0x04, 0xf5, 0xed, 0x1b, 0xf6, 0x12, 0x19, 0xeb, 0x13,
  0x09, 0xf8, 0xe2, 0xea, 0xf8, 0x0d, 0x13, 0x0e, 0xf0, 0xfd, 0x12, 0x11,
  0xf1, 0x04, 0xf4, 0xfb, 0x11, 0xec, 0x01, 0x14, 0xf3, 0xfd, 0xef, 0xe9,
  0xe5, 0xf5, 0xe9, 0x08, 0xf8, 0x0a, 0xf4, 0x13, 0xed, 0xf4, 0x0d, 0xea,
  0xf0, 0xf7, 0xe9, 0x02, 0x03, 0x1b, 0xe8, 0xe5, 0xf7, 0x07, 0x08, 0x02,
  0xf9, 0xe5, 0x01, 0x0d, 0x18, 0xff, 0xef, 0xfa, 0x17, 0x00, 0x01, 0xfc,
  0xfc, 0x14, 0xf0, 0x09, 0x13, 0xeb, 0xfe, 0x0b, 0x10, 0xfd, 0x11, 0xfc,
  0x09, 0x0f, 0x1b, 0x14, 0x09, 0xf9, 0x17, 0x0f, 0xfa, 0xff, 0xf6, 0xf8,
  0x02, 0xe6, 0x06, 0xf6, 0xea, 0xea, 0xee, 0x13, 0x13, 0x16, 0xf0, 0xf0,
  0x14, 0x0d, 0x18, 0xf8, 0xf5, 0x18, 0xfb, 0x0e, 0x02, 0xf2, 0x0d, 0xee,
  0x0c, 0x01, 0x0b, 0x11, 0xe9, 0xf7, 0xee, 0x0a, 0xef, 0xf3, 0xf6, 0x03,
  0x17, 0xe7, 0x0c, 0x12, 0x14, 0xf9, 0x1a, 0x07, 0x04, 0x0b, 0xf7, 0x15,
  0x04, 0xfd, 0xea, 0x09, 0xed, 0xf5, 0x10, 0x09, 0xe5, 0xfc, 0x0d, 0x07,
  0x06, 0x09, 0xef, 0xfe, 0xef, 0xec, 0xf6, 0xef, 0xea, 0x08, 0xed, 0x1f,
  0xf1, 0xf0, 0xe5, 0x13, 0x1b, 0x14, 0xfa, 0x0f, 0x0b, 0xf6, 0xf2, 0x1c,
  0xf4, 0xf6, 0x11, 0x15, 0x1d, 0x16, 0x1a, 0x12, 0x1b, 0x0e, 0xed, 0xfe,
  0xe5, 0x03, 0x1b, 0x1b, 0x16, 0x0f, 0xf3, 0xf9, 0xf7, 0x12, 0xff, 0x12,
  0xf2, 0xe7, 0xe1, 0xfa, 0xfa, 0x12, 0x0e, 0x0a, 0xeb, 0xf2, 0x19, 0x04,
  0xea, 0xea, 0xe5, 0xff, 0xe4, 0xe9, 0x09, 0x0b, 0x13, 0xfa, 0xfa, 0x0e,
  0xe9, 0xf2, 0x12, 0xe7, 0x0c, 0xe6, 0x0b, 0xf6, 0x01, 0xf1, 0x05, 0xfe,
  0xfc, 0xf2, 0x0b, 0x0d, 0xf8, 0x12, 0xf3, 0xf7, 0x15, 0x15, 0xfa, 0x0f,
  0xf9, 0xec, 0x04, 0x04, 0x0c, 0x0c, 0x07, 0x10, 0xff, 0x07, 0xe5, 0xff,
  0xff, 0xfb, 0x07, 0x02, 0x0e, 0x17, 0xe5, 0xfd, 0x1a, 0x0e, 0xfe, 0x1a,
  0xff, 0x0b, 0xf2, 0x17, 0x0c, 0xe7, 0x07, 0xff, 0x10, 0xf3, 0xf7, 0x03,
  0xf1, 0x0b, 0x0f, 0x0f, 0xfd, 0xf2, 0xea, 0x12, 0x0c, 0x0f, 0xea, 0xf8,
  0x06, 0x0f, 0xf9, 0xeb, 0x02, 0xeb, 0xee, 0x11, 0x0d, 0xf9, 0x0d, 0xe7,
  0x09, 0xed, 0xec, 0x12, 0xf9, 0xf2, 0xe8, 0xf9, 0xf5, 0x18, 0x06, 0x19,
  0x14, 0x09, 0xfc, 0xf7, 0x0a, 0x0f, 0xf8, 0x0b, 0x02, 0x07, 0xf1, 0xeb,
  0xfd, 0x14, 0x02, 0xf0, 0xf2, 0x15, 0x06, 0xf7, 0x12, 0xec, 0x04, 0xf1,
  0xf2, 0xe0, 0x03, 0x06, 0xf6, 0x19, 0x09, 0x16, 0xf3, 0xc5, 0xf9, 0xea,
  0xf9, 0xff, 0xac, 0xfb, 0x0d, 0x03, 0x06, 0xf0, 0x12, 0x1a, 0x0e, 0xf2,
  0xe9, 0xeb, 0xe6, 0x04, 0x08, 0xfb, 0x16, 0xfb, 0xfa, 0x04, 0xfd, 0x03,
  0xe9, 0x22, 0x08, 0xe9, 0xe5, 0x18, 0xf3, 0x14, 0xf1, 0xff, 0x14, 0xfb,
  0x01, 0x16, 0xe2, 0xe7, 0xec, 0xe8, 0xe8, 0x16, 0x17, 0xec, 0xf1, 0x0e,
  0x0b, 0xf7, 0x13, 0xe5, 0xe5, 0x08, 0x13, 0x0c, 0xf8, 0x18, 0xf8, 0x15,
  0xef, 0xe8, 0xf1, 0x16, 0xf3, 0x18, 0x10, 0xf0, 0xf4, 0xe7, 0xe9, 0xf0,
  0xe8, 0x03, 0xf7, 0x05, 0x18, 0xef, 0x14, 0x0e, 0x01, 0xec, 0x0e, 0xf4,
  0x02, 0x1b, 0xf1, 0xf9, 0xf5, 0x00, 0x10, 0xf1, 0xf8, 0xef, 0x1b, 0x12,
  0xe6, 0xfc, 0x0f, 0xf8, 0xf9, 0x1b, 0xeb, 0xf6, 0x03, 0x10, 0x15, 0xe8,
  0x10, 0x0d, 0xeb, 0x01, 0xf8, 0x06, 0x17, 0xfb, 0xfe, 0x0b, 0xf2, 0xe8,
  0x0a, 0xed, 0x11, 0x08, 0xf1, 0xfa, 0x19, 0x18, 0xfb, 0x08, 0xef, 0x14,
  0x17, 0x07, 0xfe, 0x01, 0xf2, 0x16, 0xfa, 0x0c, 0xf5, 0x05, 0x09, 0x15,
  0xfb, 0xfb, 0x0b, 0xfe, 0xef, 0x04, 0xef, 0x06, 0x08, 0x08, 0x0c, 0xe8,
  0x0a, 0xe8, 0xee, 0x07, 0x03, 0x19, 0x19, 0xeb, 0xfb, 0xf3, 0x0c, 0xfa,
  0xeb, 0x11, 0xfd, 0xee, 0xe9, 0xea, 0x1b, 0xf8, 0xf9, 0x0f, 0x17, 0xec,
  0x17, 0xe2, 0x13, 0x19, 0x09, 0x0f, 0xf8, 0x13, 0x05, 0xf9, 0x0a, 0xea,
  0xee, 0x15, 0xf7, 0x13, 0xf0, 0x0c, 0xe7, 0xfb, 0x0a, 0xf2, 0x16, 0x11,
  0xec, 0xf5, 0x02, 0x06, 0xf0, 0x06, 0x16, 0x15, 0xf2, 0x03, 0x09, 0xea,
  0x17, 0xfd, 0x0f, 0x11, 0xf2, 0x07, 0x09, 0x0c, 0x04, 0xf5, 0xf7, 0xf0,
  0x05, 0x02, 0xf8, 0xfd, 0xe8, 0xee, 0xfb, 0xee, 0x19, 0xf4, 0xf8, 0xe9,
  0x1a, 0x10, 0xf6, 0x15, 0x17, 0x0e, 0xed, 0xff, 0x0e, 0xf8, 0xed, 0x1a,
  0xf0, 0xf7, 0xf6, 0x0d, 0xee, 0x0a, 0xe5, 0x0f, 0xea, 0x10, 0xee, 0xf0,
  0x0f, 0xeb, 0xf0, 0x07, 0xf0, 0x0b, 0xf3, 0x00, 0x14, 0xec, 0xe5, 0x17,
  0x03, 0xed, 0xea, 0xe6, 0xea, 0x0a, 0x03, 0x16, 0xef, 0xff, 0x0e, 0xf9,
  0xf8, 0x06, 0x07, 0xff, 0xe7, 0xf1, 0xef, 0xea, 0xf2, 0x07, 0xeb, 0xfe,
  0xf9, 0xf6, 0x12, 0x03, 0x05, 0xf5, 0x14, 0x11, 0xfd, 0xf3, 0xf4, 0xed,
  0xfa, 0x15, 0x12, 0xf5, 0xf8, 0x13, 0x03, 0x10, 0x0e, 0xec, 0xe5, 0x12,
  0x01, 0xf1, 0x0a, 0xea, 0x03, 0x0c, 0xf4, 0xf3, 0x15, 0x13, 0x05, 0xe5,
  0x0f, 0x0b, 0xfe, 0x17, 0x09, 0xe8, 0x04, 0x17, 0xfc, 0xfd, 0x01, 0x17,
  0xf0, 0x00, 0x02, 0xee, 0xef, 0xe6, 0xf4, 0xfd, 0xf1, 0xfa, 0xef, 0x0c,
  0xde, 0xfd, 0xe6, 0x05, 0x04, 0x0a, 0x04, 0xfe, 0xf3, 0x11, 0xfa, 0xf7,
  0xf6, 0xfb, 0xe5, 0x14, 0x01, 0x31, 0x09, 0xfd, 0x2a, 0xbe, 0x18, 0x18,
  0xe7, 0x0a, 0x94, 0x17, 0xea, 0x09, 0x19, 0xef, 0xf0, 0xee, 0xf0, 0x17,
  0xf8, 0xfb, 0xf6, 0x13, 0x0b, 0x01, 0x1b, 0xfa, 0xe8, 0xfb, 0xef, 0xf7,
  0xfd, 0x24, 0xf9, 0xe9, 0xef, 0x0f, 0x00, 0x05, 0xf5, 0xe9, 0xea, 0x03,
  0x0b, 0xf8, 0xe7, 0xee, 0x14, 0xf0, 0x10, 0xeb, 0xff, 0x0c, 0x05, 0x14,
  0x14, 0x00, 0x1a, 0xd9, 0x14, 0x00, 0xdb, 0xf4, 0x16, 0xf8, 0x11, 0x0b,
  0x11, 0xcd, 0x06, 0x08, 0x03, 0xfb, 0x82, 0xfa, 0x0e, 0xf1, 0x11, 0xe5,
  0xfe, 0xf3, 0x14, 0xf0, 0xff, 0xe6, 0xfc, 0x08, 0x0d, 0x04, 0x04, 0xf3,
  0xfe, 0x04, 0xde, 0x12, 0x00, 0x24, 0xef, 0x05, 0x15, 0x0e, 0x03, 0xf6,
  0xe8, 0xe6, 0xfc, 0xf3, 0x1a, 0x0b, 0xe4, 0xf3, 0x00, 0x04, 0xf1, 0x01,
  0xfd, 0xf2, 0xf7, 0x03, 0xf8, 0x00, 0x01, 0x07, 0xef, 0xea, 0xec, 0xe5,
  0x19, 0xf7, 0xe6, 0x06, 0xff, 0x09, 0x0b, 0xff, 0x08, 0xea, 0xef, 0x16,
  0x0f, 0xfe, 0xf1, 0x18, 0xe7, 0x17, 0xe9, 0xee, 0x07, 0x1a, 0xfe, 0x06,
  0xee, 0xef, 0xea, 0x02, 0xf0, 0x1b, 0xe6, 0x18, 0x06, 0x09, 0x0d, 0xfb,
  0x14, 0x1b, 0xee, 0xe5, 0x09, 0x0f, 0x03, 0x15, 0xe8, 0xf6, 0xe9, 0x12,
  0xe5, 0xe9, 0x17, 0x08, 0xf6, 0x09, 0xfd, 0x00, 0x00, 0xf9, 0xe9, 0x06,
  0xf9, 0x06, 0x03, 0x08, 0x06, 0xe4, 0x15, 0x00, 0x02, 0x01, 0x0c, 0x02,
  0xf1, 0x15, 0x00, 0xfa, 0x1b, 0xfa, 0x19, 0xf6, 0x0a, 0xf9, 0xe9, 0xe9,
  0x12, 0xf3, 0xe2, 0xe6, 0xe8, 0xf0, 0x15, 0xfb, 0xfd, 0xf7, 0x04, 0x09,
  0xfe, 0x0e, 0x19, 0xff, 0x00, 0x15, 0x05, 0x16, 0x1b, 0x06, 0xe7, 0x0b,
  0xf2, 0xee, 0x0a, 0x02, 0xea, 0xf8, 0xf3, 0xec, 0x12, 0x15, 0x00, 0x07,
  0xeb, 0xf3, 0xe5, 0xef, 0x15, 0xda, 0xeb, 0xf3, 0xf5, 0xf8, 0x13, 0xf8,
  0x02, 0xe8, 0xea, 0xec, 0x04, 0x11, 0xa6, 0x11, 0xf0, 0xee, 0x04, 0xfe,
  0x19, 0xe6, 0x06, 0x06, 0x19, 0x03, 0x0d, 0xf0, 0x17, 0xee, 0xfd, 0x06,
  0xfa, 0xfc, 0xec, 0x0b, 0xf9, 0x03, 0x0a, 0xfa, 0x0b, 0x15, 0x14, 0x08,
  0xfa, 0xf0, 0xec, 0x0a, 0x10, 0x0c, 0x03, 0x09, 0xe4, 0x16, 0xfb, 0x02,
  0x1b, 0x10, 0xf6, 0xf9, 0xec, 0xf6, 0xf8, 0x0f, 0x06, 0xf7, 0xe9, 0xef,
  0x0a, 0xf2, 0x0c, 0x14, 0xe5, 0x00, 0x11, 0x16, 0xfe, 0xf1, 0x01, 0x17,
  0x12, 0x07, 0xe9, 0xe8, 0x09, 0x0d, 0xe2, 0x1b, 0x05, 0x14, 0x05, 0x07,
  0x1a, 0x09, 0x1a, 0x06, 0x0f, 0xe6, 0xfc, 0xf8, 0xf0, 0xfd, 0xef, 0x17,
  0xf4, 0x15, 0xe5, 0xf6, 0xf5, 0x08, 0x0a, 0x15, 0xf3, 0x03, 0xf8, 0xee,
  0x03, 0xf4, 0xfd, 0xff, 0xef, 0x14, 0xf4, 0xec, 0xf0, 0x19, 0xf1, 0xd4,
  0xeb, 0xeb, 0xf9, 0xe9, 0x06, 0x0b, 0x1a, 0x02, 0x1b, 0xbe, 0xeb, 0x0d,
  0xfc, 0xf3, 0xa7, 0xf7, 0x0d, 0x0c, 0x0b, 0xee, 0x1a, 0x13, 0xed, 0x12,
  0xf2, 0x00, 0xfc, 0xe6, 0x05, 0xd9, 0xec, 0x08, 0xed, 0xf7, 0x01, 0xf9,
  0x0f, 0x16, 0x1a, 0x0e, 0x09, 0xf8, 0x10, 0x17, 0x0d, 0x13, 0xf2, 0xfa,
  0x2d, 0x00, 0xfd, 0x0b, 0x0a, 0x01, 0xe9, 0xf5, 0x08, 0x15, 0x1b, 0xf1,
  0xff, 0xf7, 0x10, 0xf3, 0xf0, 0x0d, 0xe3, 0x1a, 0x0c, 0x0d, 0xe8, 0x15,
  0xf6, 0x0c, 0x12, 0x15, 0xf9, 0x0e, 0x02, 0xfa, 0xf0, 0x10, 0xee, 0x13,
  0x19, 0x0c, 0x16, 0xea, 0x13, 0xf1, 0xfb, 0xf0, 0x10, 0x0b, 0xe8, 0xfd,
  0x0b, 0xe6, 0xfa, 0x06, 0x06, 0xfa, 0xea, 0xed, 0xf7, 0x09, 0x17, 0x0e,
  0xee, 0xec, 0xfc, 0x19, 0x0c, 0x19, 0xf8, 0x16, 0xe7, 0xfa, 0x0c, 0x06,
  0x12, 0x0e, 0xea, 0x18, 0x0e, 0xeb, 0xf4, 0xe9, 0x0a, 0xf3, 0x0a, 0xe6,
  0x01, 0x1c, 0x04, 0x1c, 0xed, 0xd9, 0xe6, 0x12, 0xf2, 0xfe, 0x10, 0xfd,
  0xea, 0x09, 0x1b, 0x13, 0xed, 0xed, 0x16, 0x14, 0x02, 0xf6, 0x0a, 0xf4,
  0xf8, 0x14, 0xe7, 0x15, 0xe9, 0x04, 0x14, 0xfa, 0xfc, 0xff, 0x18, 0x1b,
  0xea, 0xe6, 0xea, 0xef, 0xff, 0x14, 0x1c, 0xf7, 0xc9, 0xfe, 0xf0, 0x15,
  0xec, 0x13, 0x17, 0xea, 0xe6, 0x02, 0x06, 0xe7, 0xf8, 0x06, 0xea, 0x11,
  0xdf, 0xeb, 0xf6, 0x04, 0x05, 0x18, 0xee, 0x05, 0xe6, 0xf9, 0xe8, 0x09,
  0xe5, 0xeb, 0x0e, 0x06, 0xee, 0xea, 0xeb, 0xf0, 0xfd, 0xec, 0xf4, 0xfb,
  0x1b, 0x16, 0xe2, 0x16, 0xfc, 0xf2, 0xe5, 0x02, 0xfd, 0xf3, 0x0b, 0x0e,
  0xf2, 0xf6, 0x13, 0x01, 0x17, 0x06, 0x02, 0x0f, 0xe8, 0x08, 0xf9, 0x05,
  0xe5, 0x09, 0xe0, 0xfb, 0x06, 0x0f, 0x15, 0xfd, 0x1b, 0x08, 0xf2, 0x0a,
  0xe8, 0x14, 0xe9, 0xee, 0xff, 0xf3, 0x20, 0xea, 0x17, 0xf5, 0xf2, 0x25,
  0x09, 0x06, 0x15, 0x0b, 0x0d, 0xf5, 0x1f, 0xf3, 0x00, 0x07, 0xea, 0x13,
  0x1a, 0x06, 0x10, 0x18, 0xf9, 0xec, 0x07, 0xef, 0xfc, 0x0a, 0xee, 0xf0,
  0xfd, 0xf1, 0x14, 0x10, 0xf1, 0xf5, 0x18, 0xed, 0xff, 0x05, 0x1a, 0x12,
  0xfe, 0x17, 0x0f, 0xfd, 0xd3, 0xf5, 0x04, 0x19, 0x1e, 0x09, 0x10, 0x08,
  0x05, 0xff, 0xfb, 0x1f, 0xf9, 0xee, 0xe9, 0xd3, 0xf3, 0xde, 0x09, 0xed,
  0x1a, 0xd1, 0x17, 0xf9, 0xe9, 0xec, 0x0f, 0xd2, 0x02, 0xf4, 0x16, 0x01,
  0xfb, 0xfb, 0x07, 0xec, 0x0b, 0xf9, 0xe1, 0xfe, 0x07, 0x15, 0xe1, 0x15,
  0xd5, 0x02, 0xe6, 0xff, 0xfe, 0x01, 0xf7, 0xfb, 0xf6, 0xfb, 0x0a, 0xe9,
  0xf7, 0xdd, 0x0d, 0x17, 0x01, 0x13, 0xd9, 0xec, 0x0e, 0xf7, 0xf7, 0xe6,
  0xe9, 0xc7, 0x14, 0xf9, 0xf1, 0x03, 0x03, 0xeb, 0x19, 0x24, 0xfb, 0xec,
  0x03, 0xe7, 0xd5, 0xf4, 0x14, 0x2c, 0xee, 0xe9, 0x0e, 0xbb, 0x08, 0x10,
  0x10, 0x18, 0x88, 0xef, 0x0e, 0xe9, 0xfa, 0xea, 0x19, 0x14, 0xf6, 0xfd,
  0xf2, 0xe9, 0xe4, 0x06, 0xe9, 0xfd, 0x0e, 0xfb, 0xf6, 0x06, 0xf1, 0xeb,
  0xf4, 0x16, 0x16, 0xf9, 0xeb, 0xeb, 0xfe, 0xe8, 0xfd, 0xfb, 0x06, 0xe7,
  0x0b, 0x15, 0xeb, 0x1a, 0x16, 0xf8, 0x16, 0x13, 0x0e, 0x16, 0x08, 0xf8,
  0x07, 0xec, 0xeb, 0xe9, 0xe3, 0x04, 0xe8, 0x10, 0x17, 0x0c, 0x07, 0x01,
  0xdb, 0xc9, 0x19, 0x0d, 0xf8, 0x00, 0xcf, 0x15, 0x0c, 0x01, 0x01, 0xe6,
  0xea, 0x1b, 0xe8, 0x19, 0xea, 0x1b, 0x0c, 0x04, 0x14, 0xef, 0x1a, 0xf7,
  0x0b, 0x0e, 0xf6, 0xf2, 0x05, 0xf1, 0xed, 0xf4, 0xfb, 0xfc, 0x03, 0xe8,
  0x12, 0xfc, 0x0e, 0x02, 0x11, 0xea, 0xf2, 0x17, 0xe7, 0xe6, 0xfd, 0x0c,
  0x1b, 0x09, 0xf5, 0x09, 0x1a, 0xef, 0x1b, 0x0d, 0xe9, 0x0b, 0xeb, 0x0d,
  0xf8, 0x1b, 0xfe, 0x17, 0xe6, 0x13, 0xec, 0x03, 0x06, 0xff, 0xf5, 0x0e,
  0xef, 0x0f, 0xf5, 0xef, 0xfd, 0xfa, 0xf1, 0x15, 0xfc, 0xe5, 0xec, 0x06,
  0xe6, 0x10, 0xf6, 0xed, 0xfd, 0xed, 0xf1, 0x02, 0xe9, 0x02, 0xf2, 0x0a,
  0xe5, 0x01, 0x02, 0x07, 0x10, 0xee, 0x18, 0x14, 0xf3, 0x0b, 0xe6, 0x0d,
  0xfe, 0x11, 0xfd, 0x0c, 0xfd, 0xe9, 0x0d, 0xf5, 0x0f, 0xfe, 0x01, 0xf2,
  0xef, 0x18, 0xfb, 0x1b, 0x15, 0xe5, 0xf1, 0xf1, 0x06, 0x09, 0x14, 0xf7,
  0x06, 0x03, 0x00, 0xec, 0x0f, 0xf4, 0x19, 0x18, 0x02, 0xf2, 0x01, 0xf0,
  0x04, 0x0c, 0xfe, 0xf8, 0x0d, 0xfb, 0xf6, 0x00, 0x0e, 0x14, 0xef, 0x0c,
  0x1a, 0x00, 0xf4, 0x10, 0xec, 0x01, 0x07, 0xf6, 0x03, 0xf0, 0x1b, 0xfc,
  0xe6, 0xf5, 0xfb, 0xf8, 0xfe, 0xf2, 0xf6, 0x14, 0xe6, 0xe9, 0x0e, 0x0a,
  0xf5, 0x13, 0x03, 0x09, 0xff, 0xf8, 0xce, 0x09, 0xe5, 0x1d, 0x17, 0x14,
  0x30, 0xb7, 0xfb, 0x00, 0x18, 0x0d, 0x97, 0xe8, 0xeb, 0xeb, 0xf8, 0x15,
  0x18, 0x0e, 0xe5, 0xf4, 0xea, 0xf0, 0xf3, 0xf9, 0xf0, 0xf7, 0xe7, 0xf6,
  0xf7, 0xfc, 0xff, 0x15, 0xf1, 0x06, 0x1a, 0xf3, 0xfc, 0xf3, 0x04, 0xec,
  0x06, 0x05, 0xf3, 0xff, 0x2e, 0x02, 0xed, 0x0e, 0x08, 0xe8, 0xff, 0x0d,
  0x01, 0x0b, 0xfa, 0x04, 0x0d, 0xfc, 0x1b, 0x2f, 0x24, 0x18, 0x21, 0xf8,
  0xf0, 0x27, 0x15, 0x0c, 0x10, 0xf8, 0xf0, 0x1a, 0xf8, 0xec, 0x0f, 0x14,
  0xf0, 0xe7, 0xed, 0x2a, 0x11, 0xff, 0x0d, 0x30, 0x19, 0xf0, 0x3a, 0x11,
  0x07, 0xfa, 0xfa, 0x09, 0x0c, 0x02, 0x19, 0x18, 0xed, 0xf9, 0x13, 0x0c,
  0x0a, 0x07, 0xe7, 0xef, 0xfb, 0xef, 0x15, 0xeb, 0x20, 0xf1, 0x01, 0x0c,
  0x14, 0x26, 0xf4, 0x11, 0xf9, 0xf8, 0x12, 0xee, 0xfd, 0xfc, 0xf4, 0xf0,
  0xfa, 0x11, 0xf0, 0xff, 0xe8, 0xff, 0x06, 0x04, 0xe8, 0x16, 0xfd, 0xf5,
  0xf9, 0x01, 0x03, 0x0c, 0xe7, 0x18, 0x07, 0x10, 0xfa, 0x07, 0x06, 0x0b,
  0x0f, 0x0f, 0xe8, 0xfe, 0x0b, 0xea, 0xee, 0x00, 0x05, 0x05, 0xe9, 0x08,
  0xfd, 0xe6, 0x19, 0xf4, 0xef, 0xfd, 0x1a, 0xf3, 0x11, 0x17, 0x0d, 0xf0,
  0x10, 0x05, 0xee, 0x18, 0x17, 0xf6, 0x12, 0xf9, 0xee, 0xec, 0xef, 0xfe,
  0x2e, 0xf6, 0xff, 0xff, 0x04, 0x00, 0x00, 0x00, 0x00, 0x01, 0x00, 0x00,
  0xf1, 0x30, 0x00, 0x00, 0xf2, 0x00, 0x00, 0x00, 0xa0, 0xfc, 0xff, 0xff,
  0xea, 0x30, 0x00, 0x00, 0xb2, 0xff, 0xff, 0xff, 0x80, 0xfe, 0xff, 0xff,
  0x29, 0xff, 0xff, 0xff, 0x23, 0xfb, 0xff, 0xff, 0xca, 0xff, 0xff, 0xff,
  0x00, 0x00, 0x00, 0x00, 0xa4, 0x15, 0x00, 0x00, 0xf6, 0xfb, 0xff, 0xff,
  0xe4, 0xfc, 0xff, 0xff, 0xde, 0xfb, 0xff, 0xff, 0x78, 0xff, 0xff, 0xff,
  0xde, 0x18, 0x00, 0x00, 0xfe, 0x31, 0x00, 0x00, 0x47, 0x01, 0x00, 0x00,
  0x82, 0xfb, 0xff, 0xff, 0xfc, 0x02, 0x00, 0x00, 0x10, 0xfd, 0xff, 0xff,
  0x77, 0x01, 0x00, 0x00, 0x00, 0x00, 0x00, 0x00, 0x6a, 0xaa, 0xff, 0xff,
  0xf1, 0xf4, 0xff, 0xff, 0x28, 0x00, 0x00, 0x00, 0x72, 0xfa, 0xff, 0xff,
  0x02, 0xff, 0xff, 0xff, 0x7c, 0xf8, 0xff, 0xff, 0x47, 0xfc, 0xff, 0xff,
  0xd2, 0xfb, 0xff, 0xff, 0x55, 0xfd, 0xff, 0xff, 0x89, 0xf8, 0xff, 0xff,
  0xa3, 0xfd, 0xff, 0xff, 0xaa, 0xfb, 0xff, 0xff, 0xb0, 0xfd, 0xff, 0xff,
  0x81, 0xe3, 0xff, 0xff, 0xb7, 0xf7, 0xff, 0xff, 0x3e, 0xfb, 0xff, 0xff,
  0xf0, 0xfd, 0xff, 0xff, 0x2a, 0xfc, 0xff, 0xff, 0x84, 0xfd, 0xff, 0xff,
  0x9a, 0xf7, 0xff, 0xff, 0xfa, 0xfc, 0xff, 0xff, 0x94, 0xfe, 0xff, 0xff,
  0xee, 0x00, 0x00, 0x00, 0x79, 0xf7, 0xff, 0xff, 0x00, 0x00, 0x00, 0x00,
  0x73, 0xfd, 0xff, 0xff, 0xc1, 0xfd, 0xff, 0xff, 0xb2, 0xfd, 0xff, 0xff,
  0xe0, 0xfd, 0xff, 0xff, 0x9c, 0xf9, 0xff, 0xff, 0xcb, 0xd3, 0xff, 0xff,
  0x1d, 0xfa, 0xff, 0xff, 0x1c, 0xca, 0xff, 0xff, 0xc0, 0x26, 0x00, 0x00,
  0x7d, 0x01, 0x00, 0x00, 0xb0, 0xfe, 0xff, 0xff, 0xac, 0xfc, 0xff, 0xff,
  0x8b, 0xfc, 0xff, 0xff, 0x3c, 0x00, 0x00, 0x00, 0x3d, 0xb8, 0xff, 0xff,
  0xbf, 0xf7, 0xff, 0xff, 0x3a, 0xf7, 0xff, 0xff, 0x04, 0x00, 0x00, 0x00,
  0x00, 0x08, 0x00, 0x00, 0x38, 0x08, 0xf3, 0x35, 0x02, 0xf0, 0xfc, 0xff,
  0x0a, 0x10, 0x19, 0x05, 0xfd, 0x0e, 0xef, 0x13, 0x21, 0xd8, 0xe8, 0xe2,
  0x12, 0x03, 0xfb, 0xea, 0x08, 0x0a, 0x01, 0x04, 0x0a, 0x0d, 0x09, 0x08,
  0xfe, 0xf8, 0x0c, 0x13, 0xf2, 0x01, 0x03, 0x04, 0x10, 0x0d, 0x0c, 0x15,
  0xf3, 0xf0, 0xf8, 0xfb, 0xf6, 0xfb, 0x13, 0xee, 0x08, 0x08, 0xfa, 0xd4,
  0x27, 0x04, 0xf3, 0x13, 0x0a, 0xfa, 0x81, 0xf1, 0x21, 0x0f, 0xed, 0x17,
  0x06, 0x04, 0x00, 0xf8, 0x09, 0xf7, 0xe8, 0x07, 0x0a, 0x04, 0xff, 0xf7,
  0x26, 0xdb, 0x02, 0xdb, 0xf3, 0xe8, 0xfb, 0x44, 0x13, 0xfe, 0xf4, 0x09,
  0x15, 0x00, 0x0c, 0xfe, 0x16, 0x03, 0x0d, 0xfb, 0xf6, 0x07, 0x16, 0xe1,
  0xf0, 0x04, 0x0c, 0xff, 0xed, 0xee, 0xe7, 0x0a, 0xf6, 0x05, 0xec, 0x04,
  0xf3, 0x06, 0x02, 0x15, 0x11, 0xf7, 0x08, 0x13, 0xf9, 0xe6, 0x10, 0x10,
  0xe6, 0xea, 0xf6, 0xe6, 0xf2, 0x08, 0x14, 0xf6, 0xeb, 0xf1, 0xc4, 0xf1,
  0x05, 0xe8, 0xf6, 0xce, 0x18, 0xe6, 0xf0, 0xff, 0xf3, 0xfd, 0x04, 0x09,
  0x0f, 0xfe, 0x0f, 0xf1, 0xea, 0x0e, 0x04, 0x13, 0x10, 0xf7, 0x10, 0x10,
  0x0b, 0xfa, 0xfd, 0x07, 0x12, 0xfa, 0xf6, 0x0f, 0xfe, 0xe5, 0x0a, 0xfd,
  0x02, 0x09, 0xf8, 0x01, 0xff, 0x18, 0x13, 0xef, 0xe4, 0xfc, 0xf3, 0x15,
  0xfb, 0xfa, 0xfe, 0xf6, 0x30, 0xf7, 0xff, 0x2a, 0x15, 0x03, 0xfc, 0x0b,
  0x14, 0x01, 0x0b, 0x0f, 0x02, 0xf5, 0x14, 0x0f, 0x23, 0xf1, 0x0a, 0x05,
  0xff, 0xf8, 0x09, 0x29, 0xf5, 0x0d, 0x0e, 0x11, 0x0f, 0xf5, 0xf7, 0x00,
  0xf4, 0xf3, 0x13, 0xf1, 0x0b, 0x12, 0x12, 0xf8, 0xf3, 0x0a, 0x0e, 0xec,
  0x0d, 0xf5, 0xe1, 0xec, 0xfd, 0xf0, 0x03, 0xeb, 0x0a, 0x0b, 0xfb, 0x0b,
  0x1d, 0xe2, 0xf9, 0x11, 0x0e, 0xe6, 0x3a, 0x0f, 0xfd, 0x02, 0x02, 0xf6,
  0x09, 0x12, 0xef, 0xf3, 0xef, 0xf6, 0x14, 0x12, 0xff, 0x06, 0x15, 0xef,
  0xf0, 0xf3, 0xf7, 0xed, 0xf9, 0x0c, 0xea, 0xfd, 0x12, 0x04, 0xf1, 0x10,
  0x0d, 0x0d, 0xeb, 0xef, 0xf6, 0xfe, 0xeb, 0xf8, 0xef, 0x15, 0xf0, 0xfd,
  0x03, 0xf4, 0xfa, 0x0f, 0xf8, 0x0d, 0x09, 0xf0, 0xfa, 0xf8, 0xef, 0x02,
  0x01, 0xfb, 0x13, 0x12, 0xee, 0xfa, 0x0f, 0x14, 0x03, 0xf4, 0xfd, 0xf1,
  0xe9, 0x11, 0xf8, 0xe3, 0x12, 0xfa, 0xff, 0xee, 0x08, 0x02, 0xe5, 0x07,
  0x02, 0xfb, 0x08, 0xf4, 0xef, 0xf4, 0x04, 0x0b, 0x0d, 0xf7, 0xf3, 0xdc,
  0x06, 0x15, 0x10, 0xf4, 0x0b, 0xec, 0x00, 0x0e, 0x08, 0x0d, 0x10, 0x02,
  0xeb, 0x05, 0x03, 0xf0, 0xfe, 0xf5, 0xf2, 0xf0, 0xfd, 0x09, 0xff, 0x00,
  0xff, 0x0c, 0xf5, 0xee, 0x0a, 0xf6, 0xfc, 0x0d, 0xe0, 0x02, 0xf3, 0xf4,
  0xf4, 0xf5, 0xfa, 0xfc, 0xe9, 0xec, 0x10, 0x07, 0x15, 0x16, 0xed, 0xfd,
  0x02, 0xfb, 0xf9, 0xf2, 0xfc, 0x0d, 0x15, 0xef, 0xd0, 0xea, 0xec, 0x09,
  0xfb, 0x0b, 0xf7, 0xfb, 0x11, 0xed, 0xfb, 0x00, 0x08, 0x02, 0xf4, 0xfc,
  0x07, 0x13, 0xf5, 0xf5, 0xf4, 0x02, 0x14, 0x09, 0x04, 0xfd, 0x0e, 0x03,
  0xeb, 0x01, 0xf5, 0xef, 0xed, 0xf9, 0xed, 0x11, 0xec, 0x0d, 0x02, 0xec,
  0xf6, 0x01, 0xf1, 0xff, 0x02, 0xf4, 0xdb, 0xfb, 0x05, 0xea, 0xf0, 0x05,
  0x14, 0x03, 0x09, 0xe6, 0x0c, 0x02, 0xed, 0x08, 0x06, 0x04, 0x11, 0xec,
  0xfc, 0x12, 0x0c, 0xfb, 0x05, 0xfd, 0xfe, 0x11, 0x03, 0x01, 0xff, 0x07,
  0xed, 0x06, 0xee, 0xed, 0x09, 0x06, 0xf6, 0xeb, 0x02, 0xed, 0x0f, 0x12,
  0xfc, 0xf3, 0xec, 0x14, 0xee, 0xf0, 0x0a, 0x08, 0xec, 0x00, 0x07, 0xfa,
  0xf2, 0xf5, 0xfd, 0x11, 0xfd, 0xf6, 0xed, 0x12, 0x03, 0xf0, 0xe8, 0xeb,
  0xe8, 0x04, 0x11, 0xea, 0x13, 0x14, 0x03, 0x07, 0xfe, 0x07, 0x05, 0x10,
  0x07, 0xf5, 0x14, 0x10, 0xf3, 0xf2, 0xff, 0x08, 0xf7, 0xe9, 0xf3, 0xe5,
  0xf2, 0x11, 0xe7, 0xf5, 0xf1, 0x05, 0x0d, 0xeb, 0x16, 0xed, 0xf6, 0xf3,
  0xfc, 0x08, 0xef, 0x0c, 0xf3, 0x12, 0x03, 0x0f, 0xf0, 0xfd, 0x11, 0x09,
  0xed, 0xfa, 0xed, 0x01, 0x14, 0x07, 0x16, 0x00, 0xf1, 0x03, 0x0f, 0x02,
  0x0e, 0xfc, 0xf8, 0x0c, 0x08, 0xf7, 0xfd, 0xfc, 0xf0, 0x0d, 0xf1, 0xec,
  0xed, 0x0f, 0xf6, 0x14, 0xf3, 0xef, 0xfb, 0x0a, 0x06, 0x0d, 0xf5, 0xeb,
  0xef, 0x02, 0x03, 0x02, 0xf5, 0x0c, 0xf6, 0x07, 0xf8, 0x09, 0x07, 0xf9,
  0xfe, 0xf1, 0x01, 0x0e, 0xf9, 0xf6, 0xfe, 0x14, 0x0d, 0xee, 0xf3, 0x0c,
  0xed, 0xf7, 0xfb, 0x09, 0x12, 0x0a, 0xef, 0xf4, 0x0d, 0x0e, 0xfc, 0x0f,
  0xef, 0xfb, 0x0c, 0x0c, 0xfa, 0xfa, 0xf4, 0xfc, 0xd5, 0xf5, 0x15, 0xc3,
  0xfb, 0xeb, 0xf4, 0x10, 0x00, 0x07, 0x0a, 0x14, 0x08, 0x1b, 0x0c, 0xfc,
  0xda, 0xec, 0x0a, 0xf2, 0xfd, 0x12, 0x05, 0xc6, 0x09, 0x13, 0x0f, 0x13,
  0xf7, 0x12, 0xf3, 0xf7, 0xf2, 0xf6, 0x13, 0xf1, 0x04, 0xf5, 0xfc, 0x10,
  0xeb, 0x12, 0x04, 0xf0, 0xff, 0x03, 0x13, 0x0f, 0x0c, 0xef, 0x10, 0xef,
  0x0b, 0xf0, 0x0e, 0xef, 0xdb, 0xff, 0xee, 0x15, 0xf1, 0xfa, 0x06, 0xf0,
  0x21, 0xf8, 0x04, 0x34, 0xf5, 0x03, 0xf3, 0x01, 0xf5, 0x0c, 0x04, 0x14,
  0xf6, 0xf5, 0x06, 0x1c, 0x1c, 0xee, 0x10, 0xf1, 0xf9, 0xf2, 0xfc, 0xfd,
  0xe9, 0x05, 0xed, 0x06, 0xf4, 0xf2, 0xf6, 0x0e, 0xf6, 0x12, 0xec, 0xfe,
  0xdf, 0xf4, 0x05, 0xfc, 0xfe, 0xf2, 0x06, 0x07, 0xfb, 0xf0, 0x05, 0xfb,
  0x05, 0x05, 0x06, 0x03, 0xfe, 0xf5, 0x13, 0xd0, 0x26, 0xee, 0x10, 0x0d,
  0xf1, 0xe2, 0xba, 0x10, 0x03, 0x13, 0x0a, 0xfb, 0x07, 0xfa, 0x0c, 0xfa,
  0x0c, 0x00, 0xfa, 0x13, 0xf6, 0xf9, 0xef, 0xfe, 0x19, 0xfa, 0xf8, 0xe2,
  0xf9, 0xe6, 0xee, 0x14, 0x10, 0xeb, 0x00, 0xec, 0x10, 0xf2, 0x00, 0x0c,
  0x0d, 0x03, 0xf2, 0xeb, 0x0b, 0xf5, 0x13, 0x00, 0x12, 0x03, 0xe7, 0x01,
  0x17, 0xf4, 0xfe, 0xf8, 0x10, 0x03, 0xfe, 0xe6, 0xfc, 0x05, 0x14, 0x1a,
  0x24, 0xfa, 0xf4, 0xf7, 0xf5, 0x07, 0x0e, 0x08, 0xca, 0xff, 0xf3, 0xf1,
  0xf1, 0x0c, 0xfc, 0x09, 0xf4, 0xf0, 0x07, 0x11, 0x05, 0xf4, 0xfb, 0x10,
  0xcb, 0x00, 0x0a, 0xfd, 0x04, 0x07, 0xee, 0xd8, 0x09, 0x09, 0x0d, 0x00,
  0xfa, 0xf2, 0xee, 0xfd, 0xf3, 0x0d, 0xf3, 0x0e, 0xf3, 0xf1, 0x0b, 0x12,
  0x0d, 0x14, 0x0d, 0xf4, 0x12, 0xf0, 0x0b, 0xed, 0x05, 0xf3, 0xfb, 0x09,
  0x00, 0xfc, 0xff, 0x02, 0xdc, 0xf9, 0xfa, 0x11, 0xf1, 0xee, 0x00, 0xf7,
  0xff, 0xef, 0x0e, 0xfd, 0xf4, 0x12, 0xf6, 0x0e, 0xed, 0x06, 0xf4, 0x11,
  0x0b, 0xf7, 0xf5, 0xea, 0x0f, 0x0d, 0xfd, 0xf3, 0xee, 0xf4, 0xf3, 0x05,
  0xf0, 0x0b, 0x0e, 0x0a, 0x14, 0xff, 0xfe, 0xfe, 0xfe, 0xf2, 0x13, 0x12,
  0xfc, 0x11, 0x08, 0x03, 0x06, 0xf2, 0xf2, 0xf9, 0xf5, 0xe9, 0xea, 0xeb,
  0xe6, 0xf9, 0xf2, 0x0e, 0x0a, 0x10, 0xf0, 0xfe, 0xff, 0xf7, 0xfc, 0x0d,
  0xf6, 0xf3, 0xfe, 0x14, 0x02, 0x15, 0xfc, 0x08, 0x11, 0x13, 0xef, 0xf0,
  0xf8, 0xef, 0xea, 0x06, 0xf3, 0xf5, 0xfc, 0xeb, 0x03, 0xf3, 0xdc, 0x05,
  0xde, 0xfb, 0x05, 0x06, 0xf8, 0x02, 0xec, 0xef, 0xfc, 0x02, 0xf9, 0xfe,
  0x0d, 0xf8, 0xf0, 0x0b, 0xec, 0xf3, 0x09, 0x0d, 0xf3, 0xfa, 0xee, 0x03,
  0x04, 0x03, 0x15, 0xeb, 0xe6, 0xfd, 0x0f, 0xef, 0x08, 0x03, 0xfe, 0x0a,
  0xf9, 0x15, 0x17, 0x00, 0x0e, 0x17, 0xeb, 0x16, 0xf6, 0x13, 0x0d, 0xeb,
  0xec, 0x08, 0xea, 0xfa, 0x14, 0xf4, 0xf9, 0x0b, 0xff, 0x00, 0xf0, 0xf5,
  0xee, 0x06, 0x14, 0x01, 0xf2, 0x0f, 0x06, 0xf3, 0x12, 0x14, 0xeb, 0x00,
  0x16, 0xf6, 0xfa, 0xf2, 0xfa, 0x04, 0x10, 0xfb, 0xeb, 0x08, 0xf5, 0x08,
  0xf9, 0x10, 0xf6, 0x0e, 0x0f, 0x01, 0x03, 0xfd, 0xf8, 0xf1, 0x01, 0x05,
  0xfd, 0xee, 0xec, 0xf6, 0xea, 0xea, 0x07, 0x04, 0xfc, 0xec, 0xf4, 0x0d,
  0xc5, 0x0d, 0x08, 0xd1, 0xfd, 0x09, 0xf1, 0x07, 0xee, 0x05, 0x0c, 0x06,
  0xea, 0x18, 0x10, 0x01, 0xd0, 0xfe, 0x0a, 0x15, 0xef, 0xf0, 0xfb, 0xfa,
  0xe8, 0x0b, 0xfd, 0xf8, 0xf6, 0xeb, 0x0b, 0xfa, 0xeb, 0xff, 0x11, 0xfc,
  0x06, 0xef, 0x02, 0xf8, 0xed, 0xf9, 0x15, 0x10, 0x04, 0x0b, 0xf8, 0xf9,
  0x02, 0xf9, 0x00, 0xf5, 0xf3, 0xf4, 0xf3, 0xfd, 0xf6, 0x0f, 0xf6, 0xf0,
  0x0e, 0xff, 0xf1, 0x0a, 0xe3, 0x03, 0xff, 0xde, 0x14, 0x00, 0xf5, 0xfe,
  0x03, 0xf3, 0xf3, 0xf0, 0x0f, 0x12, 0x0e, 0xef, 0xdd, 0x10, 0x04, 0x17,
  0x00, 0x0e, 0xfa, 0xde, 0x0d, 0xf8, 0xef, 0x07, 0x02, 0xf7, 0xf0, 0xff,
  0xea, 0xf8, 0xfb, 0x0b, 0xf7, 0x0d, 0x08, 0x06, 0x09, 0x08, 0xf4, 0xfb,
  0x09, 0xf2, 0x0d, 0x10, 0x0b, 0x01, 0x04, 0x0b, 0xfb, 0xee, 0xf5, 0xf1,
  0xe6, 0x03, 0xfb, 0x0a, 0xf5, 0xee, 0xfd, 0xed, 0x16, 0x0f, 0x02, 0x0f,
  0xf9, 0x0a, 0x02, 0xf4, 0xf9, 0x00, 0xfe, 0x14, 0x0a, 0x0b, 0xf6, 0x02,
  0x0e, 0xf7, 0x10, 0xe4, 0x17, 0xe3, 0xee, 0x1a, 0xf4, 0xef, 0xf4, 0xf5,
  0xfa, 0x0f, 0xf1, 0xfd, 0x0b, 0x09, 0x0f, 0x10, 0xfb, 0x06, 0xee, 0x02,
  0x0f, 0xef, 0x0f, 0xed, 0x10, 0xe3, 0xdf, 0xff, 0xef, 0xee, 0xf0, 0xf4,
  0x06, 0xf4, 0xf6, 0xf7, 0x0e, 0xe8, 0x06, 0x10, 0x0b, 0xfa, 0x21, 0xeb,
  0xd0, 0x0f, 0xef, 0xe4, 0xfa, 0x00, 0xfa, 0xfc, 0x0d, 0xf5, 0x06, 0x06,
  0xf7, 0x07, 0xfa, 0x0b, 0xc6, 0xf7, 0x04, 0x04, 0x0f, 0xf1, 0xf6, 0x00,
  0xec, 0x10, 0x09, 0x00, 0x12, 0xf6, 0xf0, 0xec, 0xf0, 0x01, 0xf1, 0xf0,
  0xea, 0xef, 0xfb, 0x06, 0x03, 0xf1, 0x00, 0x15, 0x10, 0x0f, 0x09, 0xf6,
  0xf3, 0x05, 0x0e, 0xeb, 0x05, 0xef, 0xf6, 0x0d, 0xd5, 0xf1, 0x13, 0xfe,
  0xf6, 0xed, 0xdf, 0x01, 0xf9, 0xfb, 0xf0, 0x1f, 0x12, 0xf2, 0x0f, 0x0c,
  0x0c, 0xeb, 0x02, 0x03, 0x05, 0xf0, 0xf2, 0xfb, 0x1a, 0xea, 0x0b, 0xe4,
  0x0e, 0xed, 0x0e, 0x15, 0x05, 0x0c, 0xf4, 0x01, 0xf5, 0xf9, 0x04, 0xff,
  0x0c, 0xff, 0x01, 0x12, 0x0a, 0x01, 0xf4, 0xfe, 0xec, 0x0b, 0xe8, 0xee,
  0xfa, 0x03, 0xf3, 0xf4, 0x0a, 0x01, 0x09, 0xea, 0xfe, 0xf5, 0xfb, 0xf8,
  0xff, 0xe7, 0x10, 0xf8, 0x0c, 0xea, 0x3a, 0xfd, 0x03, 0x11, 0x14, 0xf1,
  0xf8, 0x05, 0x06, 0x0b, 0xef, 0x09, 0xf8, 0x04, 0xec, 0xf5, 0x0f, 0xf4,
  0xf9, 0x07, 0x08, 0xfc, 0xeb, 0x0e, 0x03, 0xf5, 0xee, 0x0b, 0x0a, 0x14,
  0xfd, 0x0e, 0x11, 0x11, 0x0c, 0xf3, 0xf2, 0xef, 0x13, 0xfd, 0xf2, 0xef,
  0xef, 0x11, 0x00, 0x02, 0x14, 0x13, 0x0b, 0xf4, 0x0c, 0x02, 0xf6, 0xff,
  0x11, 0x0f, 0xec, 0x12, 0x0d, 0xfa, 0x0b, 0xfd, 0xf6, 0xf9, 0xee, 0x03,
  0xe5, 0xfc, 0xfd, 0x0c, 0xfb, 0x0d, 0xf4, 0xff, 0x02, 0xf8, 0x01, 0x05,
  0xfd, 0x0c, 0xf0, 0x07, 0x07, 0xf8, 0xf2, 0x04, 0xec, 0x09, 0xf3, 0xf8,
  0xf5, 0x08, 0x12, 0x0b, 0x0b, 0xea, 0xf4, 0xf5, 0xf4, 0xf5, 0xf2, 0xf0,
  0x15, 0xf6, 0x16, 0xf0, 0x0c, 0xf9, 0xea, 0xf0, 0x01, 0x03, 0xeb, 0xef,
  0xec, 0x05, 0xf2, 0x0e, 0x0e, 0x12, 0xfc, 0xf3, 0x02, 0x08, 0x03, 0xf0,
  0xeb, 0xff, 0xf3, 0x0a, 0xa3, 0xfc, 0xf5, 0xd5, 0xed, 0xf2, 0xee, 0xf3,
  0x01, 0x01, 0xf8, 0x11, 0x00, 0x09, 0x0c, 0x09, 0xbf, 0xf5, 0xf0, 0xed,
  0x0b, 0xeb, 0x0f, 0xe8, 0x05, 0xf9, 0xfa, 0x02, 0xec, 0x08, 0xf6, 0xec,
  0xff, 0xea, 0xf0, 0x12, 0xed, 0x04, 0xf0, 0x0e, 0x04, 0xf2, 0xfd, 0xef,
  0x0d, 0x03, 0x09, 0x07, 0xef, 0x0c, 0xf8, 0xfc, 0x04, 0xfa, 0xfd, 0x0b,
  0xed, 0xf9, 0xf2, 0xfb, 0x05, 0xf3, 0xf4, 0x00, 0xf9, 0xfd, 0x0c, 0xe2,
  0x0a, 0x0e, 0x10, 0x09, 0xf5, 0xed, 0xed, 0x00, 0x04, 0xf7, 0x04, 0xe4,
  0xfc, 0xfa, 0xfc, 0x0a, 0xfb, 0xe5, 0x10, 0xeb, 0xfb, 0xf7, 0x09, 0x03,
  0xf3, 0x02, 0xfd, 0xee, 0xfc, 0xf3, 0x09, 0x0b, 0xfc, 0x04, 0x09, 0xef,
  0x0d, 0xf9, 0x19, 0xf1, 0xf5, 0xf5, 0xf8, 0x05, 0xed, 0xf7, 0xf7, 0x0c,
  0x01, 0x04, 0xf7, 0x07, 0xe4, 0x03, 0x0e, 0xf5, 0x0e, 0x0c, 0xf9, 0xee,
  0x97, 0xf0, 0x01, 0xd0, 0x11, 0xf3, 0xf5, 0x01, 0x11, 0xf9, 0xf4, 0xfd,
  0xfc, 0xff, 0x10, 0x01, 0xb3, 0x11, 0xf6, 0xeb, 0x12, 0x0a, 0xf8, 0xdd,
  0x02, 0x06, 0xe6, 0xef, 0x0a, 0x15, 0x0f, 0x0e, 0x15, 0x0f, 0x05, 0x0c,
  0x04, 0x10, 0x0a, 0xff, 0x01, 0x11, 0xfc, 0x05, 0x0f, 0x06, 0x13, 0xfc,
  0x0e, 0x06, 0x0a, 0x03, 0x06, 0x06, 0xf4, 0xf8, 0xd4, 0xf7, 0x0b, 0xfb,
  0xf3, 0x15, 0x08, 0xfe, 0x29, 0xf7, 0xed, 0x16, 0xf3, 0x0c, 0xfe, 0x0a,
  0x0d, 0xfc, 0x09, 0xee, 0xf7, 0xe9, 0x0c, 0x09, 0x0f, 0xf1, 0xea, 0xe9,
  0xf7, 0xf4, 0xfc, 0x2e, 0x10, 0xf9, 0x09, 0x0d, 0xf2, 0x07, 0x04, 0xfe,
  0x13, 0xf9, 0x06, 0x04, 0xff, 0xff, 0x07, 0xfa, 0xfe, 0x13, 0x0d, 0xf1,
  0x0b, 0xfc, 0xf5, 0x08, 0x10, 0x03, 0xf2, 0xe3, 0x10, 0xf8, 0x02, 0x07,
  0x03, 0xe9, 0x0c, 0x03, 0x0b, 0xf5, 0x17, 0xec, 0xf7, 0x0c, 0xfd, 0xfb,
  0xfe, 0xef, 0x10, 0xeb, 0xea, 0x11, 0xdd, 0xf5, 0xfd, 0xe2, 0x0f, 0xe9,
  0xff, 0x0c, 0x01, 0xf9, 0xe7, 0xf1, 0x15, 0x12, 0xfa, 0xec, 0xf9, 0x06,
  0xef, 0xef, 0xfc, 0x12, 0xf8, 0x0c, 0xee, 0xf4, 0xf1, 0xfe, 0x12, 0xf1,
  0x02, 0xfa, 0xec, 0x0b, 0xec, 0x12, 0x08, 0x00, 0x04, 0xeb, 0x0f, 0x0a,
  0x0c, 0x1b, 0x00, 0x15, 0xf6, 0xf8, 0x19, 0xf7, 0x00, 0xf3, 0xf2, 0x03,
  0x09, 0xfd, 0xf3, 0xe5, 0x0a, 0x01, 0x04, 0xe5, 0x0b, 0xf0, 0xef, 0x0b,
  0xe9, 0x00, 0x14, 0xe9, 0xee, 0x08, 0xe7, 0x13, 0x0e, 0x03, 0xf8, 0x00,
  0xf5, 0x12, 0x12, 0xfe, 0xf8, 0xfd, 0xe8, 0xfa, 0xf0, 0x0b, 0x05, 0x12,
  0xed, 0xfe, 0x11, 0x05, 0x0d, 0x08, 0x1a, 0x0b, 0x03, 0x00, 0x12, 0x11,
  0xf9, 0x16, 0xf5, 0x04, 0xf1, 0xea, 0x11, 0xfe, 0x02, 0xfa, 0x10, 0x14,
  0xef, 0x12, 0xe6, 0xf8, 0x12, 0x04, 0x16, 0x1e, 0xf7, 0x10, 0xec, 0xf0,
  0x00, 0x04, 0xf2, 0xf5, 0xfe, 0xfd, 0xfc, 0x09, 0x11, 0xcf, 0xfb, 0xde,
  0xed, 0xe0, 0x0b, 0x28, 0x0b, 0x00, 0xfd, 0xea, 0xf9, 0x0b, 0x01, 0x0e,
  0xec, 0xf2, 0x10, 0x0b, 0xf6, 0xf3, 0x10, 0xf3, 0x12, 0x11, 0xfe, 0xf8,
  0x0d, 0xfe, 0xe9, 0xec, 0x0b, 0xfa, 0x08, 0xdc, 0xec, 0x1b, 0xfc, 0x17,
  0x13, 0xf4, 0xef, 0xf7, 0xf8, 0xd9, 0x34, 0xf7, 0x13, 0xf3, 0x12, 0xee,
  0xf1, 0xf7, 0x05, 0x08, 0x15, 0x0d, 0xeb, 0x09, 0x00, 0xfd, 0x11, 0xf2,
  0xf1, 0x0d, 0xff, 0xfd, 0x06, 0xf5, 0x00, 0x09, 0x09, 0x0a, 0xfd, 0xf7,
  0x07, 0xf3, 0xec, 0x04, 0x11, 0xed, 0x00, 0xfa, 0x04, 0xea, 0x09, 0x07,
  0xf7, 0x01, 0x0f, 0xfa, 0xfd, 0x05, 0x06, 0x05, 0x0e, 0x0b, 0x0d, 0xf9,
  0x15, 0x11, 0x02, 0xfc, 0xf7, 0xfd, 0x0c, 0x16, 0x10, 0xf0, 0xeb, 0xfb,
  0x46, 0xff, 0xff, 0xff, 0x04, 0x00, 0x00, 0x00, 0x80, 0x00, 0x00, 0x00,
  0xb8, 0x17, 0x00, 0x00, 0xa4, 0xd8, 0xff, 0xff, 0xaa, 0x1b, 0x00, 0x00,
  0x26, 0xe0, 0xff, 0xff, 0xbd, 0xfc, 0xff, 0xff, 0xe5, 0x17, 0x00, 0x00,
  0xe9, 0x08, 0x00, 0x00, 0x9c, 0xfb, 0xff, 0xff, 0x8b, 0x10, 0x00, 0x00,
  0x33, 0xfd, 0xff, 0xff, 0xf9, 0x1a, 0x00, 0x00, 0x0c, 0x16, 0x00, 0x00,
  0x97, 0xe8, 0xff, 0xff, 0xab, 0xff, 0xff, 0xff, 0x63, 0xfb, 0xff, 0xff,
  0x3f, 0xf5, 0xff, 0xff, 0xaa, 0x00, 0x00, 0x00, 0xb5, 0x01, 0x00, 0x00,
  0x79, 0x0e, 0x00, 0x00, 0xc3, 0xdf, 0xff, 0xff, 0xb8, 0x00, 0x00, 0x00,
  0x78, 0xe3, 0xff, 0xff, 0x6b, 0xfc, 0xff, 0xff, 0xb4, 0xfa, 0xff, 0xff,
  0x46, 0x1a, 0x00, 0x00, 0x81, 0x0d, 0x00, 0x00, 0x48, 0x1e, 0x00, 0x00,
  0x63, 0xd9, 0xff, 0xff, 0xaf, 0xff, 0xff, 0xff, 0x8d, 0xfe, 0xff, 0xff,
  0xb6, 0xda, 0xff, 0xff, 0x7c, 0xff, 0xff, 0xff, 0xd2, 0xff, 0xff, 0xff,
  0x04, 0x00, 0x00, 0x00, 0x20, 0x00, 0x00, 0x00, 0x53, 0xe2, 0xbf, 0x0f,
  0x05, 0xe9, 0x05, 0xdc, 0xf3, 0x2c, 0xda, 0x4e, 0xde, 0x01, 0xe7, 0xf9,
  0x02, 0x01, 0xf1, 0x66, 0x16, 0x7f, 0x03, 0x40, 0xde, 0xde, 0xb4, 0x9b,
  0xff, 0x0b, 0x64, 0xe2, 0x00, 0x00, 0x06, 0x00, 0x08, 0x00, 0x04, 0x00,
  0x06, 0x00, 0x00, 0x00, 0x04, 0x00, 0x00, 0x00, 0x04, 0x00, 0x00, 0x00,
  0x34, 0xd4, 0xff, 0xff, 0xb4, 0xf6, 0xff, 0xff, 0xb8, 0xf6, 0xff, 0xff,
  0x0f, 0x00, 0x00, 0x00, 0x4d, 0x4c, 0x49, 0x52, 0x20, 0x43, 0x6f, 0x6e,
  0x76, 0x65, 0x72, 0x74, 0x65, 0x64, 0x2e, 0x00, 0x01, 0x00, 0x00, 0x00,
  0x14, 0x00, 0x00, 0x00, 0x00, 0x00, 0x0e, 0x00, 0x18, 0x00, 0x14, 0x00,
  0x10, 0x00, 0x0c, 0x00, 0x08, 0x00, 0x04, 0x00, 0x0e, 0x00, 0x00, 0x00,
  0x14, 0x00, 0x00, 0x00, 0x1c, 0x00, 0x00, 0x00, 0x7c, 0x01, 0x00, 0x00,
  0x80, 0x01, 0x00, 0x00, 0x84, 0x01, 0x00, 0x00, 0x04, 0x00, 0x00, 0x00,
  0x6d, 0x61, 0x69, 0x6e, 0x00, 0x00, 0x00, 0x00, 0x06, 0x00, 0x00, 0x00,
  0x44, 0x01, 0x00, 0x00, 0xf4, 0x00, 0x00, 0x00, 0xa8, 0x00, 0x00, 0x00,
  0x6c, 0x00, 0x00, 0x00, 0x34, 0x00, 0x00, 0x00, 0x10, 0x00, 0x00, 0x00,
  0x00, 0x00, 0x0a, 0x00, 0x10, 0x00, 0x0c, 0x00, 0x08, 0x00, 0x04, 0x00,
  0x0a, 0x00, 0x00, 0x00, 0x0c, 0x00, 0x00, 0x00, 0x10, 0x00, 0x00, 0x00,
  0x02, 0x00, 0x00, 0x00, 0x01, 0x00, 0x00, 0x00, 0x0e, 0x00, 0x00, 0x00,
  0x01, 0x00, 0x00, 0x00, 0x0d, 0x00, 0x00, 0x00, 0x5a, 0xff, 0xff, 0xff,
  0x14, 0x00, 0x00, 0x00, 0x00, 0x00, 0x00, 0x08, 0x10, 0x00, 0x00, 0x00,
  0x14, 0x00, 0x00, 0x00, 0x01, 0x00, 0x00, 0x00, 0x6c, 0xf7, 0xff, 0xff,
  0x01, 0x00, 0x00, 0x00, 0x0d, 0x00, 0x00, 0x00, 0x03, 0x00, 0x00, 0x00,
  0x0c, 0x00, 0x00, 0x00, 0x02, 0x00, 0x00, 0x00, 0x01, 0x00, 0x00, 0x00,
  0x8e, 0xff, 0xff, 0xff, 0x14, 0x00, 0x00, 0x00, 0x00, 0x00, 0x00, 0x08,
  0x14, 0x00, 0x00, 0x00, 0x18, 0x00, 0x00, 0x00, 0x01, 0x00, 0x00, 0x00,
  0x7e, 0xff, 0xff, 0xff, 0x00, 0x00, 0x00, 0x01, 0x01, 0x00, 0x00, 0x00,
  0x0c, 0x00, 0x00, 0x00, 0x03, 0x00, 0x00, 0x00, 0x0b, 0x00, 0x00, 0x00,
  0x04, 0x00, 0x00, 0x00, 0x03, 0x00, 0x00, 0x00, 0xc6, 0xff, 0xff, 0xff,
  0x14, 0x00, 0x00, 0x00, 0x00, 0x00, 0x00, 0x08, 0x14, 0x00, 0x00, 0x00,
  0x18, 0x00, 0x00, 0x00, 0x01, 0x00, 0x00, 0x00, 0xb6, 0xff, 0xff, 0xff,
  0x00, 0x00, 0x00, 0x01, 0x01, 0x00, 0x00, 0x00, 0x0b, 0x00, 0x00, 0x00,
  0x03, 0x00, 0x00, 0x00, 0x0a, 0x00, 0x00, 0x00, 0x06, 0x00, 0x00, 0x00,
  0x05, 0x00, 0x00, 0x00, 0x00, 0x00, 0x0e, 0x00, 0x1a, 0x00, 0x14, 0x00,
  0x10, 0x00, 0x0c, 0x00, 0x0b, 0x00, 0x04, 0x00, 0x0e, 0x00, 0x00, 0x00,
  0x1c, 0x00, 0x00, 0x00, 0x00, 0x00, 0x00, 0x08, 0x1c, 0x00, 0x00, 0x00,
  0x20, 0x00, 0x00, 0x00, 0x01, 0x00, 0x00, 0x00, 0x00, 0x00, 0x06, 0x00,
  0x08, 0x00, 0x07, 0x00, 0x06, 0x00, 0x00, 0x00, 0x00, 0x00, 0x00, 0x01,
  0x01, 0x00, 0x00, 0x00, 0x0a, 0x00, 0x00, 0x00, 0x03, 0x00, 0x00, 0x00,
  0x09, 0x00, 0x00, 0x00, 0x08, 0x00, 0x00, 0x00, 0x07, 0x00, 0x00, 0x00,
  0x00, 0x00, 0x0a, 0x00, 0x0c, 0x00, 0x00, 0x00, 0x08, 0x00, 0x04, 0x00,
  0x0a, 0x00, 0x00, 0x00, 0x08, 0x00, 0x00, 0x00, 0x0c, 0x00, 0x00, 0x00,
  0x01, 0x00, 0x00, 0x00, 0x09, 0x00, 0x00, 0x00, 0x01, 0x00, 0x00, 0x00,
  0x00, 0x00, 0x00, 0x00, 0x01, 0x00, 0x00, 0x00, 0x0e, 0x00, 0x00, 0x00,
  0x01, 0x00, 0x00, 0x00, 0x00, 0x00, 0x00, 0x00, 0x0f, 0x00, 0x00, 0x00,
  0x54, 0x07, 0x00, 0x00, 0xb4, 0x06, 0x00, 0x00, 0x2c, 0x06, 0x00, 0x00,
  0xb0, 0x05, 0x00, 0x00, 0x44, 0x05, 0x00, 0x00, 0xc8, 0x04, 0x00, 0x00,
  0x5c, 0x04, 0x00, 0x00, 0xe8, 0x03, 0x00, 0x00, 0x7c, 0x03, 0x00, 0x00,
  0x08, 0x03, 0x00, 0x00, 0x44, 0x02, 0x00, 0x00, 0x90, 0x01, 0x00, 0x00,
  0xdc, 0x00, 0x00, 0x00, 0x60, 0x00, 0x00, 0x00, 0x04, 0x00, 0x00, 0x00,
  0xfe, 0xf8, 0xff, 0xff, 0x00, 0x00, 0x00, 0x01, 0x14, 0x00, 0x00, 0x00,
  0x1c, 0x00, 0x00, 0x00, 0x1c, 0x00, 0x00, 0x00, 0x0f, 0x00, 0x00, 0x00,
  0x34, 0x00, 0x00, 0x00, 0x02, 0x00, 0x00, 0x00, 0xff, 0xff, 0xff, 0xff,
  0x01, 0x00, 0x00, 0x00, 0xe8, 0xf8, 0xff, 0xff, 0x19, 0x00, 0x00, 0x00,
  0x53, 0x74, 0x61, 0x74, 0x65, 0x66, 0x75, 0x6c, 0x50, 0x61, 0x72, 0x74,
  0x69, 0x74, 0x69, 0x6f, 0x6e, 0x65, 0x64, 0x43, 0x61, 0x6c, 0x6c, 0x3a,
  0x30, 0x00, 0x00, 0x00, 0x02, 0x00, 0x00, 0x00, 0x01, 0x00, 0x00, 0x00,
  0x01, 0x00, 0x00, 0x00, 0x7e, 0xfd, 0xff, 0xff, 0x00, 0x00, 0x00, 0x01,
  0x18, 0x00, 0x00, 0x00, 0x20, 0x00, 0x00, 0x00, 0x3c, 0x00, 0x00, 0x00,
  0x0e, 0x00, 0x00, 0x00, 0x00, 0x00, 0x00, 0x09, 0x50, 0x00, 0x00, 0x00,
  0x02, 0x00, 0x00, 0x00, 0xff, 0xff, 0xff, 0xff, 0x01, 0x00, 0x00, 0x00,
  0xec, 0xf9, 0xff, 0xff, 0x08, 0x00, 0x00, 0x00, 0x10, 0x00, 0x00, 0x00,
  0x01, 0x00, 0x00, 0x00, 0x03, 0x00, 0x00, 0x00, 0x00, 0x00, 0x00, 0x00,
  0x01, 0x00, 0x00, 0x00, 0x3b, 0x54, 0xf8, 0x3b, 0x1a, 0x00, 0x00, 0x00,
  0x53, 0x74, 0x61, 0x74, 0x65, 0x66, 0x75, 0x6c, 0x50, 0x61, 0x72, 0x74,
  0x69, 0x74, 0x69, 0x6f, 0x6e, 0x65, 0x64, 0x43, 0x61, 0x6c, 0x6c, 0x3a,
  0x30, 0x31, 0x00, 0x00, 0x02, 0x00, 0x00, 0x00, 0x01, 0x00, 0x00, 0x00,
  0x01, 0x00, 0x00, 0x00, 0xf6, 0xfd, 0xff, 0xff, 0x00, 0x00, 0x00, 0x01,
  0x18, 0x00, 0x00, 0x00, 0x20, 0x00, 0x00, 0x00, 0x40, 0x00, 0x00, 0x00,
  0x0d, 0x00, 0x00, 0x00, 0x00, 0x00, 0x00, 0x09, 0x88, 0x00, 0x00, 0x00,
  0x02, 0x00, 0x00, 0x00, 0xff, 0xff, 0xff, 0xff, 0x20, 0x00, 0x00, 0x00,
  0x64, 0xfa, 0xff, 0xff, 0x08, 0x00, 0x00, 0x00, 0x14, 0x00, 0x00, 0x00,
  0x01, 0x00, 0x00, 0x00, 0x80, 0xff, 0xff, 0xff, 0xff, 0xff, 0xff, 0xff,
  0x00, 0x00, 0x00, 0x00, 0x01, 0x00, 0x00, 0x00, 0x00, 0x70, 0xd0, 0x3b,
  0x4c, 0x00, 0x00, 0x00, 0x73, 0x65, 0x71, 0x75, 0x65, 0x6e, 0x74, 0x69,
  0x61, 0x6c, 0x2f, 0x64, 0x65, 0x6e, 0x73, 0x65, 0x5f, 0x32, 0x2f, 0x4d,
  0x61, 0x74, 0x4d, 0x75, 0x6c, 0x3b, 0x73, 0x65, 0x71, 0x75, 0x65, 0x6e,
  0x74, 0x69, 0x61, 0x6c, 0x2f, 0x64, 0x65, 0x6e, 0x73, 0x65, 0x5f, 0x32,
  0x2f, 0x52, 0x65, 0x6c, 0x75, 0x3b, 0x73, 0x65, 0x71, 0x75, 0x65, 0x6e,
  0x74, 0x69, 0x61, 0x6c, 0x2f, 0x64, 0x65, 0x6e, 0x73, 0x65, 0x5f, 0x32,
  0x2f, 0x42, 0x69, 0x61, 0x73, 0x41, 0x64, 0x64, 0x00, 0x00, 0x00, 0x00,
  0x02, 0x00, 0x00, 0x00, 0x01, 0x00, 0x00, 0x00, 0x20, 0x00, 0x00, 0x00,
  0xa6, 0xfe, 0xff, 0xff, 0x00, 0x00, 0x00, 0x01, 0x18, 0x00, 0x00, 0x00,
  0x20, 0x00, 0x00, 0x00, 0x40, 0x00, 0x00, 0x00, 0x0c, 0x00, 0x00, 0x00,
  0x00, 0x00, 0x00, 0x09, 0x88, 0x00, 0x00, 0x00, 0x02, 0x00, 0x00, 0x00,
  0xff, 0xff, 0xff, 0xff, 0x40, 0x00, 0x00, 0x00, 0x14, 0xfb, 0xff, 0xff,
  0x08, 0x00, 0x00, 0x00, 0x14, 0x00, 0x00, 0x00, 0x01, 0x00, 0x00, 0x00,
  0x80, 0xff, 0xff, 0xff, 0xff, 0xff, 0xff, 0xff, 0x00, 0x00, 0x00, 0x00,
  0x01, 0x00, 0x00, 0x00, 0xfc, 0x45, 0xb1, 0x3b, 0x4c, 0x00, 0x00, 0x00,
  0x73, 0x65, 0x71, 0x75, 0x65, 0x6e, 0x74, 0x69, 0x61, 0x6c, 0x2f, 0x64,
  0x65, 0x6e, 0x73, 0x65, 0x5f, 0x31, 0x2f, 0x4d, 0x61, 0x74, 0x4d, 0x75,
  0x6c, 0x3b, 0x73, 0x65, 0x71, 0x75, 0x65, 0x6e, 0x74, 0x69, 0x61, 0x6c,
  0x2f, 0x64, 0x65, 0x6e, 0x73, 0x65, 0x5f, 0x31, 0x2f, 0x52, 0x65, 0x6c,
  0x75, 0x3b, 0x73, 0x65, 0x71, 0x75, 0x65, 0x6e, 0x74, 0x69, 0x61, 0x6c,
  0x2f, 0x64, 0x65, 0x6e, 0x73, 0x65, 0x5f, 0x31, 0x2f, 0x42, 0x69, 0x61,
  0x73, 0x41, 0x64, 0x64, 0x00, 0x00, 0x00, 0x00, 0x02, 0x00, 0x00, 0x00,
  0x01, 0x00, 0x00, 0x00, 0x40, 0x00, 0x00, 0x00, 0x56, 0xff, 0xff, 0xff,
  0x00, 0x00, 0x00, 0x01, 0x18, 0x00, 0x00, 0x00, 0x20, 0x00, 0x00, 0x00,
  0x40, 0x00, 0x00, 0x00, 0x0b, 0x00, 0x00, 0x00, 0x00, 0x00, 0x00, 0x09,
  0x80, 0x00, 0x00, 0x00, 0x02, 0x00, 0x00, 0x00, 0xff, 0xff, 0xff, 0xff,
  0x40, 0x00, 0x00, 0x00, 0xc4, 0xfb, 0xff, 0xff, 0x08, 0x00, 0x00, 0x00,
  0x14, 0x00, 0x00, 0x00, 0x01, 0x00, 0x00, 0x00, 0x80, 0xff, 0xff, 0xff,
  0xff, 0xff, 0xff, 0xff, 0x00, 0x00, 0x00, 0x00, 0x01, 0x00, 0x00, 0x00,
  0xcd, 0x96, 0xad, 0x3b, 0x46, 0x00, 0x00, 0x00, 0x73, 0x65, 0x71, 0x75,
  0x65, 0x6e, 0x74, 0x69, 0x61, 0x6c, 0x2f, 0x64, 0x65, 0x6e, 0x73, 0x65,
  0x2f, 0x4d, 0x61, 0x74, 0x4d, 0x75, 0x6c, 0x3b, 0x73, 0x65, 0x71, 0x75,
  0x65, 0x6e, 0x74, 0x69, 0x61, 0x6c, 0x2f, 0x64, 0x65, 0x6e, 0x73, 0x65,
  0x2f, 0x52, 0x65, 0x6c, 0x75, 0x3b, 0x73, 0x65, 0x71, 0x75, 0x65, 0x6e,
  0x74, 0x69, 0x61, 0x6c, 0x2f, 0x64, 0x65, 0x6e, 0x73, 0x65, 0x2f, 0x42,
  0x69, 0x61, 0x73, 0x41, 0x64, 0x64, 0x00, 0x00, 0x02, 0x00, 0x00, 0x00,
  0x01, 0x00, 0x00, 0x00, 0x40, 0x00, 0x00, 0x00, 0x00, 0x00, 0x16, 0x00,
  0x20, 0x00, 0x1c, 0x00, 0x1b, 0x00, 0x14, 0x00, 0x10, 0x00, 0x0c, 0x00,
  0x00, 0x00, 0x00, 0x00, 0x08, 0x00, 0x07, 0x00, 0x16, 0x00, 0x00, 0x00,
  0x00, 0x00, 0x00, 0x01, 0x18, 0x00, 0x00, 0x00, 0x20, 0x00, 0x00, 0x00,
  0x40, 0x00, 0x00, 0x00, 0x0a, 0x00, 0x00, 0x00, 0x00, 0x00, 0x00, 0x09,
  0x48, 0x00, 0x00, 0x00, 0x02, 0x00, 0x00, 0x00, 0xff, 0xff, 0xff, 0xff,
  0x01, 0x00, 0x00, 0x00, 0x84, 0xfc, 0xff, 0xff, 0x08, 0x00, 0x00, 0x00,
  0x14, 0x00, 0x00, 0x00, 0x01, 0x00, 0x00, 0x00, 0x80, 0xff, 0xff, 0xff,
  0xff, 0xff, 0xff, 0xff, 0x00, 0x00, 0x00, 0x00, 0x01, 0x00, 0x00, 0x00,
  0x55, 0xd0, 0xc9, 0x3c, 0x0c, 0x00, 0x00, 0x00, 0x74, 0x66, 0x6c, 0x2e,
  0x71, 0x75, 0x61, 0x6e, 0x74, 0x69, 0x7a, 0x65, 0x00, 0x00, 0x00, 0x00,
  0x02, 0x00, 0x00, 0x00, 0x01, 0x00, 0x00, 0x00, 0x01, 0x00, 0x00, 0x00,
  0xfa, 0xfc, 0xff, 0xff, 0x00, 0x00, 0x00, 0x01, 0x14, 0x00, 0x00, 0x00,
  0x34, 0x00, 0x00, 0x00, 0x09, 0x00, 0x00, 0x00, 0x00, 0x00, 0x00, 0x09,
  0x44, 0x00, 0x00, 0x00, 0xe4, 0xfc, 0xff, 0xff, 0x08, 0x00, 0x00, 0x00,
  0x14, 0x00, 0x00, 0x00, 0x01, 0x00, 0x00, 0x00, 0x00, 0x00, 0x00, 0x00,
  0x00, 0x00, 0x00, 0x00, 0x00, 0x00, 0x00, 0x00, 0x01, 0x00, 0x00, 0x00,
  0x3c, 0xc7, 0xab, 0x3b, 0x17, 0x00, 0x00, 0x00, 0x73, 0x65, 0x71, 0x75,
  0x65, 0x6e, 0x74, 0x69, 0x61, 0x6c, 0x2f, 0x64, 0x65, 0x6e, 0x73, 0x65,
  0x2f, 0x4d, 0x61, 0x74, 0x4d, 0x75, 0x6c, 0x00, 0x02, 0x00, 0x00, 0x00,
  0x40, 0x00, 0x00, 0x00, 0x01, 0x00, 0x00, 0x00, 0x62, 0xfd, 0xff, 0xff,
  0x00, 0x00, 0x00, 0x01, 0x14, 0x00, 0x00, 0x00, 0x30, 0x00, 0x00, 0x00,
  0x08, 0x00, 0x00, 0x00, 0x00, 0x00, 0x00, 0x02, 0x50, 0x00, 0x00, 0x00,
  0x4c, 0xfd, 0xff, 0xff, 0x08, 0x00, 0x00, 0x00, 0x10, 0x00, 0x00, 0x00,
  0x01, 0x00, 0x00, 0x00, 0x00, 0x00, 0x00, 0x00, 0x00, 0x00, 0x00, 0x00,
  0x01, 0x00, 0x00, 0x00, 0x39, 0x6b, 0x07, 0x39, 0x27, 0x00, 0x00, 0x00,
  0x73, 0x65, 0x71, 0x75, 0x65, 0x6e, 0x74, 0x69, 0x61, 0x6c, 0x2f, 0x64,
  0x65, 0x6e, 0x73, 0x65, 0x2f, 0x42, 0x69, 0x61, 0x73, 0x41, 0x64, 0x64,
  0x2f, 0x52, 0x65, 0x61, 0x64, 0x56, 0x61, 0x72, 0x69, 0x61, 0x62, 0x6c,
  0x65, 0x4f, 0x70, 0x00, 0x01, 0x00, 0x00, 0x00, 0x40, 0x00, 0x00, 0x00,
  0xd2, 0xfd, 0xff, 0xff, 0x00, 0x00, 0x00, 0x01, 0x14, 0x00, 0x00, 0x00,
  0x30, 0x00, 0x00, 0x00, 0x07, 0x00, 0x00, 0x00, 0x00, 0x00, 0x00, 0x09,
  0x44, 0x00, 0x00, 0x00, 0xbc, 0xfd, 0xff, 0xff, 0x08, 0x00, 0x00, 0x00,
  0x10, 0x00, 0x00, 0x00, 0x01, 0x00, 0x00, 0x00, 0x00, 0x00, 0x00, 0x00,
  0x00, 0x00, 0x00, 0x00, 0x01, 0x00, 0x00, 0x00, 0xab, 0xf1, 0x00, 0x3c,
  0x19, 0x00, 0x00, 0x00, 0x73, 0x65, 0x71, 0x75, 0x65, 0x6e, 0x74, 0x69,
  0x61, 0x6c, 0x2f, 0x64, 0x65, 0x6e, 0x73, 0x65, 0x5f, 0x31, 0x2f, 0x4d,
  0x61, 0x74, 0x4d, 0x75, 0x6c, 0x00, 0x00, 0x00, 0x02, 0x00, 0x00, 0x00,
  0x40, 0x00, 0x00, 0x00, 0x40, 0x00, 0x00, 0x00, 0x3a, 0xfe, 0xff, 0xff,
  0x00, 0x00, 0x00, 0x01, 0x14, 0x00, 0x00, 0x00, 0x34, 0x00, 0x00, 0x00,
  0x06, 0x00, 0x00, 0x00, 0x00, 0x00, 0x00, 0x02, 0x58, 0x00, 0x00, 0x00,
  0x24, 0xfe, 0xff, 0xff, 0x08, 0x00, 0x00, 0x00, 0x14, 0x00, 0x00, 0x00,
  0x01, 0x00, 0x00, 0x00, 0x00, 0x00, 0x00, 0x00, 0x00, 0x00, 0x00, 0x00,
  0x00, 0x00, 0x00, 0x00, 0x01, 0x00, 0x00, 0x00, 0x8b, 0xde, 0x2e, 0x38,
  0x29, 0x00, 0x00, 0x00, 0x73, 0x65, 0x71, 0x75, 0x65, 0x6e, 0x74, 0x69,
  0x61, 0x6c, 0x2f, 0x64, 0x65, 0x6e, 0x73, 0x65, 0x5f, 0x31, 0x2f, 0x42,
  0x69, 0x61, 0x73, 0x41, 0x64, 0x64, 0x2f, 0x52, 0x65, 0x61, 0x64, 0x56,
  0x61, 0x72, 0x69, 0x61, 0x62, 0x6c, 0x65, 0x4f, 0x70, 0x00, 0x00, 0x00,
  0x01, 0x00, 0x00, 0x00, 0x40, 0x00, 0x00, 0x00, 0xb2, 0xfe, 0xff, 0xff,
  0x00, 0x00, 0x00, 0x01, 0x14, 0x00, 0x00, 0x00, 0x30, 0x00, 0x00, 0x00,
  0x05, 0x00, 0x00, 0x00, 0x00, 0x00, 0x00, 0x09, 0x44, 0x00, 0x00, 0x00,
  0x9c, 0xfe, 0xff, 0xff, 0x08, 0x00, 0x00, 0x00, 0x10, 0x00, 0x00, 0x00,
  0x01, 0x00, 0x00, 0x00, 0x00, 0x00, 0x00, 0x00, 0x00, 0x00, 0x00, 0x00,
  0x01, 0x00, 0x00, 0x00, 0x4d, 0xdb, 0x3a, 0x3c, 0x19, 0x00, 0x00, 0x00,
  0x73, 0x65, 0x71, 0x75, 0x65, 0x6e, 0x74, 0x69, 0x61, 0x6c, 0x2f, 0x64,
  0x65, 0x6e, 0x73, 0x65, 0x5f, 0x32, 0x2f, 0x4d, 0x61, 0x74, 0x4d, 0x75,
  0x6c, 0x00, 0x00, 0x00, 0x02, 0x00, 0x00, 0x00, 0x20, 0x00, 0x00, 0x00,
  0x40, 0x00, 0x00, 0x00, 0x1a, 0xff, 0xff, 0xff, 0x00, 0x00, 0x00, 0x01,
  0x14, 0x00, 0x00, 0x00, 0x34, 0x00, 0x00, 0x00, 0x04, 0x00, 0x00, 0x00,
  0x00, 0x00, 0x00, 0x02, 0x58, 0x00, 0x00, 0x00, 0x04, 0xff, 0xff, 0xff,
  0x08, 0x00, 0x00, 0x00, 0x14, 0x00, 0x00, 0x00, 0x01, 0x00, 0x00, 0x00,
  0x00, 0x00, 0x00, 0x00, 0x00, 0x00, 0x00, 0x00, 0x00, 0x00, 0x00, 0x00,
  0x01, 0x00, 0x00, 0x00, 0xb5, 0x64, 0x81, 0x38, 0x29, 0x00, 0x00, 0x00,
  0x73, 0x65, 0x71, 0x75, 0x65, 0x6e, 0x74, 0x69, 0x61, 0x6c, 0x2f, 0x64,
  0x65, 0x6e, 0x73, 0x65, 0x5f, 0x32, 0x2f, 0x42, 0x69, 0x61, 0x73, 0x41,
  0x64, 0x64, 0x2f, 0x52, 0x65, 0x61, 0x64, 0x56, 0x61, 0x72, 0x69, 0x61,
  0x62, 0x6c, 0x65, 0x4f, 0x70, 0x00, 0x00, 0x00, 0x01, 0x00, 0x00, 0x00,
  0x20, 0x00, 0x00, 0x00, 0x92, 0xff, 0xff, 0xff, 0x00, 0x00, 0x00, 0x01,
  0x14, 0x00, 0x00, 0x00, 0x34, 0x00, 0x00, 0x00, 0x03, 0x00, 0x00, 0x00,
  0x00, 0x00, 0x00, 0x09, 0x48, 0x00, 0x00, 0x00, 0x7c, 0xff, 0xff, 0xff,
  0x08, 0x00, 0x00, 0x00, 0x14, 0x00, 0x00, 0x00, 0x01, 0x00, 0x00, 0x00,
  0x00, 0x00, 0x00, 0x00, 0x00, 0x00, 0x00, 0x00, 0x00, 0x00, 0x00, 0x00,
  0x01, 0x00, 0x00, 0x00, 0x46, 0xba, 0xac, 0x3b, 0x19, 0x00, 0x00, 0x00,
  0x73, 0x65, 0x71, 0x75, 0x65, 0x6e, 0x74, 0x69, 0x61, 0x6c, 0x2f, 0x64,
  0x65, 0x6e, 0x73, 0x65, 0x5f, 0x33, 0x2f, 0x4d, 0x61, 0x74, 0x4d, 0x75,
  0x6c, 0x00, 0x00, 0x00, 0x02, 0x00, 0x00, 0x00, 0x01, 0x00, 0x00, 0x00,
  0x20, 0x00, 0x00, 0x00, 0x00, 0x00, 0x16, 0x00, 0x1c, 0x00, 0x18, 0x00,
  0x17, 0x00, 0x10, 0x00, 0x0c, 0x00, 0x08, 0x00, 0x00, 0x00, 0x00, 0x00,
  0x00, 0x00, 0x07, 0x00, 0x16, 0x00, 0x00, 0x00, 0x00, 0x00, 0x00, 0x01,
  0x20, 0x00, 0x00, 0x00, 0x40, 0x00, 0x00, 0x00, 0x02, 0x00, 0x00, 0x00,
  0x00, 0x00, 0x00, 0x02, 0x64, 0x00, 0x00, 0x00, 0x0c, 0x00, 0x0c, 0x00,
  0x00, 0x00, 0x00, 0x00, 0x08, 0x00, 0x04, 0x00, 0x0c, 0x00, 0x00, 0x00,
  0x08, 0x00, 0x00, 0x00, 0x14, 0x00, 0x00, 0x00, 0x01, 0x00, 0x00, 0x00,
  0x00, 0x00, 0x00, 0x00, 0x00, 0x00, 0x00, 0x00, 0x00, 0x00, 0x00, 0x00,
  0x01, 0x00, 0x00, 0x00, 0xea, 0xa2, 0x0c, 0x38, 0x29, 0x00, 0x00, 0x00,
  0x73, 0x65, 0x71, 0x75, 0x65, 0x6e, 0x74, 0x69, 0x61, 0x6c, 0x2f, 0x64,
  0x65, 0x6e, 0x73, 0x65, 0x5f, 0x33, 0x2f, 0x42, 0x69, 0x61, 0x73, 0x41,
  0x64, 0x64, 0x2f, 0x52, 0x65, 0x61, 0x64, 0x56, 0x61, 0x72, 0x69, 0x61,
  0x62, 0x6c, 0x65, 0x4f, 0x70, 0x00, 0x00, 0x00, 0x01, 0x00, 0x00, 0x00,
  0x01, 0x00, 0x00, 0x00, 0x00, 0x00, 0x16, 0x00, 0x1c, 0x00, 0x18, 0x00,
  0x00, 0x00, 0x14, 0x00, 0x10, 0x00, 0x0c, 0x00, 0x00, 0x00, 0x00, 0x00,
  0x08, 0x00, 0x07, 0x00, 0x16, 0x00, 0x00, 0x00, 0x00, 0x00, 0x00, 0x01,
  0x14, 0x00, 0x00, 0x00, 0x20, 0x00, 0x00, 0x00, 0x20, 0x00, 0x00, 0x00,
  0x01, 0x00, 0x00, 0x00, 0x3c, 0x00, 0x00, 0x00, 0x02, 0x00, 0x00, 0x00,
  0xff, 0xff, 0xff, 0xff, 0x01, 0x00, 0x00, 0x00, 0x04, 0x00, 0x04, 0x00,
  0x04, 0x00, 0x00, 0x00, 0x1d, 0x00, 0x00, 0x00, 0x73, 0x65, 0x72, 0x76,
  0x69, 0x6e, 0x67, 0x5f, 0x64, 0x65, 0x66, 0x61, 0x75, 0x6c, 0x74, 0x5f,
  0x64, 0x65, 0x6e, 0x73, 0x65, 0x5f, 0x69, 0x6e, 0x70, 0x75, 0x74, 0x3a,
  0x30, 0x00, 0x00, 0x00, 0x02, 0x00, 0x00, 0x00, 0x01, 0x00, 0x00, 0x00,
  0x01, 0x00, 0x00, 0x00, 0x03, 0x00, 0x00, 0x00, 0x44, 0x00, 0x00, 0x00,
  0x24, 0x00, 0x00, 0x00, 0x04, 0x00, 0x00, 0x00, 0xf0, 0xff, 0xff, 0xff,
  0x06, 0x00, 0x00, 0x00, 0x02, 0x00, 0x00, 0x00, 0x00, 0x00, 0x00, 0x06,
  0x0c, 0x00, 0x10, 0x00, 0x0f, 0x00, 0x00, 0x00, 0x08, 0x00, 0x04, 0x00,
  0x0c, 0x00, 0x00, 0x00, 0x09, 0x00, 0x00, 0x00, 0x04, 0x00, 0x00, 0x00,
  0x00, 0x00, 0x00, 0x09, 0x0c, 0x00, 0x0c, 0x00, 0x0b, 0x00, 0x00, 0x00,
  0x00, 0x00, 0x04, 0x00, 0x0c, 0x00, 0x00, 0x00, 0x72, 0x00, 0x00, 0x00,
  0x00, 0x00, 0x00, 0x72
};

const int g_model_len = sizeof(g_model);
